ff
fe
fe
fe
0c
11
10
0f
10
11
0c
02
00
02
01
01
fd
e8
e2
01
02
ff
ff
fe
00
01
01
fe
02
1e
0e
ea
fe
00
0b
06
d5
05
fc
05
ff
13
00
01
f7
f3
ed
f8
11
02
07
e9
de
e2
d8
01
fe
0b
12
e5
d8
ff
f3
e5
e7
fe
ed
f3
f1
fc
ed
f5
f0
df
e1
f5
f7
e2
f1
ef
e1
e6
d7
02
ee
07
08
03
f8
ec
f1
fd
06
03
f6
f5
f0
f4
f5
fe
f6
ec
ee
f2
ef
f1
f2
01
ec
f8
fa
10
ff
e1
02
01
03
fe
f6
fa
f7
f3
f5
fe
fc
f8
f2
fa
f3
f3
ef
eb
f2
e8
ea
ff
ee
da
f1
1c
01
e5
16
06
03
06
fb
f8
f1
f1
ee
f8
fa
f8
f2
fa
f7
f7
f8
ed
f6
ed
f8
fe
ef
e7
03
1c
07
2c
10
f6
06
0f
02
04
03
fe
fe
06
02
04
ff
06
02
fb
f6
f8
03
00
fc
ff
f5
fa
f6
e4
f4
20
ec
f1
0c
14
06
03
07
02
03
fe
05
0a
07
03
fa
fa
fa
f9
02
03
f6
f7
f8
f6
08
2d
e9
11
ff
09
0e
0d
07
0e
0f
0a
06
07
08
10
08
02
fc
01
fa
f1
f9
ff
f8
01
01
eb
18
21
f5
0a
05
10
17
0e
03
0c
0d
07
14
0a
0c
14
00
f7
f5
f7
ec
f4
fe
ff
fe
04
08
0d
24
1b
ec
f2
0b
00
0a
0f
01
03
09
06
09
03
05
0a
03
f7
f5
f2
f3
f4
fd
03
00
02
f9
17
0a
19
e3
14
07
f7
fe
05
01
ff
f5
f7
f9
fa
f3
fb
01
ff
fb
f5
f8
fa
00
07
04
02
fc
13
16
02
eb
f9
ff
01
fc
f9
f6
f5
eb
ef
ef
fb
f7
02
fa
ff
f5
f0
f6
ff
fb
01
06
07
0d
21
29
0f
0c
f5
fa
f5
f1
ef
f0
f4
f4
f3
f0
fb
fa
05
01
04
f8
f1
e5
ef
f2
ff
06
07
13
17
06
12
28
13
01
f0
f3
f4
f0
f4
f2
fe
fc
f9
04
09
06
01
ff
f2
e0
eb
e3
f7
04
07
1d
0f
e6
15
28
22
14
fa
f4
f7
fc
fe
04
04
ff
fa
09
08
fe
03
ff
f3
ed
f0
e9
fa
06
07
11
eb
f4
13
28
32
12
f8
fb
00
fe
0a
07
fb
fe
f3
fb
fa
f9
f1
eb
ed
ec
fd
05
09
00
01
0a
10
17
13
1b
1e
f4
04
04
07
0a
05
08
fb
f7
f5
fe
f4
f3
ea
e7
e8
fa
13
19
0e
06
10
08
0b
e0
ea
0d
f8
fc
13
02
04
0b
09
0c
07
02
07
0a
f6
eb
e9
eb
fc
0a
1a
16
12
13
14
10
21
f7
fe
d6
be
fe
0f
07
06
07
07
10
08
0a
09
fe
f5
ef
f8
03
10
1f
1f
1f
19
15
17
14
16
03
ff
d3
e7
f4
03
0c
09
08
06
0f
0e
0b
0b
f9
f7
05
0a
11
18
23
23
14
0f
0e
0f
0b
05
fb
fe
fd
21
04
fc
03
0a
07
02
06
05
0b
05
f8
03
11
15
17
18
16
17
17
06
06
ff
0c
0b
04
27
f3
e9
f2
f2
02
fe
03
fb
04
fe
00
02
fc
06
18
20
15
10
16
15
0c
02
02
0a
09
f9
0c
15
f6
0c
f4
f6
08
04
10
04
03
01
05
08
0e
19
1b
15
10
09
15
14
03
04
00
0a
f6
df
e5
00
f9
fb
06
03
03
fe
0e
0f
09
08
18
20
21
1d
11
05
10
0d
04
03
f3
0b
04
04
fb
e9
fb
02
02
e3
fe
0c
fa
ea
fb
00
12
1a
21
15
1f
19
25
27
17
0d
09
07
f9
05
01
f3
dc
e3
f3
02
ff
f9
f8
16
f0
03
0c
11
11
16
0a
08
25
16
2c
29
20
ea
00
00
05
12
ef
f2
d8
ee
f1
ff
01
02
fe
fe
fc
02
00
02
ff
02
00
ff
01
00
10
12
0b
00
10
02
02
02
00
fe
02
01
00
ff
02
ff
ff
ff
0d
12
12
16
14
12
10
ff
01
00
18
18
13
f5
ec
1f
1f
04
02
04
03
04
03
fe
fe
1a
0f
f1
f3
dc
dc
f1
ec
fd
f5
f6
e5
ef
ef
db
ce
f8
ec
e2
e2
d1
d6
fd
f7
f9
e6
fe
ff
12
ff
f6
02
11
19
19
0f
fc
f3
fc
08
fd
05
f0
eb
fe
f1
f9
01
fb
06
0d
09
07
f8
00
19
0a
f0
fb
ef
f9
0c
0a
05
03
f0
08
07
fc
f6
fc
01
04
09
00
fa
fd
05
f6
f9
0e
0a
13
2e
fa
15
10
ef
f2
00
ff
fc
fc
fe
05
00
f6
fc
fe
ff
00
01
f8
f4
00
fe
f9
fd
0f
1b
0a
2d
e2
14
0a
ff
f7
05
04
fa
ff
04
09
00
fa
fe
04
06
00
fb
fb
fc
ff
fb
01
03
ff
0d
f4
37
06
0c
03
fd
f9
07
06
02
02
01
09
04
fb
03
09
0a
00
01
0d
03
fe
07
03
07
0a
00
e2
21
05
fd
07
fe
08
0d
10
07
05
04
0a
03
0c
11
08
16
14
0f
19
0e
0f
0d
0c
16
0c
f3
f9
29
11
0e
00
f4
ff
0b
0d
0d
09
04
01
06
12
0c
06
1c
1b
16
11
08
08
05
01
12
00
f4
05
18
0d
16
fd
f9
f3
fc
fc
03
f9
f4
f7
ff
f2
00
fd
fe
fa
02
01
fa
f9
f5
ec
f5
f4
26
0f
eb
15
04
eb
f6
ed
ed
f1
f0
ed
e4
e7
e6
de
dd
cf
d1
dc
e2
ee
f0
f8
fd
fb
00
fa
01
09
01
0f
ee
e4
f2
e4
db
e5
e0
e2
e4
e0
d9
d1
d1
cc
d0
de
e2
ea
f6
00
01
04
0e
0f
f2
f1
1c
fe
c8
d6
e7
e1
e6
ee
eb
e6
ea
e6
e6
ec
ef
f3
f3
f3
f5
ff
00
04
0b
14
0b
0e
fb
ef
24
cb
d7
e7
f5
fa
07
04
03
05
03
f7
07
09
08
12
10
11
10
13
0b
0e
19
1a
04
f8
03
0e
1d
fa
fd
00
ff
0a
10
06
10
0b
0b
0c
11
1a
1c
1f
23
21
1e
1d
1c
15
1a
15
16
19
fa
11
fa
0c
07
12
0e
09
08
0a
10
16
17
1a
22
23
24
26
21
22
1a
1b
1d
1b
0f
10
1f
06
06
f5
01
06
ff
0f
0e
02
0e
0e
10
1d
26
21
23
1f
1e
17
14
13
0a
0d
07
05
01
05
02
f4
08
f6
14
ee
f1
fe
00
ff
05
01
fd
00
04
00
f8
fe
03
fc
f5
f5
e6
ee
e8
eb
f1
ef
f2
f5
03
01
0a
e6
fa
05
03
02
00
02
f6
ef
f0
ea
e3
eb
e9
e2
e1
e7
e4
e8
f1
fa
f5
f2
f7
f1
0c
ff
e6
e8
08
03
08
06
08
ff
f7
f5
ef
e4
ed
fe
f4
f4
fa
ff
f3
fb
00
ff
fa
04
fc
eb
d6
02
22
e6
10
00
05
fd
00
fe
01
03
06
03
00
06
04
00
05
0e
00
06
fa
fe
01
04
06
fc
00
fe
1a
0c
01
03
04
06
fc
fe
01
07
05
07
03
02
01
01
03
00
02
fe
03
06
02
fa
fd
00
19
e3
22
03
02
03
ff
08
fe
ff
05
0d
00
04
05
05
05
06
ff
00
06
06
08
06
06
00
ea
f1
07
ea
12
fc
f1
04
01
02
fa
01
ff
05
fb
f8
fe
01
08
05
ff
fa
02
fc
f8
f6
ff
ff
f1
f3
08
01
12
0d
f1
06
fb
fc
ff
0b
0a
09
ff
04
fe
fd
03
fe
fc
ff
01
fd
e8
04
0b
09
f8
f9
ef
01
ff
db
f3
0d
1c
08
f2
05
0a
f9
00
fc
fd
f9
f1
ed
f1
fe
f6
f9
fa
07
02
f7
f6
05
d3
fe
02
e0
f9
02
05
fa
c7
dc
f4
00
09
09
f1
f6
e3
cd
f6
f5
e4
04
17
03
ee
e7
fb
17
1f
01
01
02
04
fe
fd
03
01
01
f5
fe
02
ff
03
02
1d
15
18
0f
12
00
01
fe
00
fe
fe
fe
02
02
fe
01
ff
02
00
00
00
02
01
02
01
fe
fe
ff
15
22
19
0f
1b
1e
1d
0c
0e
19
1a
1a
16
fe
fe
fc
10
ff
1d
0c
1c
19
0e
13
ec
10
27
31
27
27
26
1b
1d
09
06
09
10
25
05
2a
33
00
ff
1d
ee
e8
16
0f
11
0b
02
0c
f9
0d
10
0e
14
00
11
22
0d
00
ff
fb
f9
01
f8
ef
32
01
02
24
ee
f3
0d
0b
02
f8
02
00
f4
ff
00
01
0c
03
fe
f8
fe
03
02
f5
fc
fc
ee
e4
e6
0f
03
fd
e6
f9
fb
fe
06
0a
0f
04
06
14
0c
04
03
0a
05
fd
fe
0d
01
fd
fa
f1
fa
ed
df
2a
0e
1c
03
0d
0d
01
02
08
0d
07
0d
0d
04
00
0a
15
00
ff
02
0a
fe
f6
f1
f0
f8
00
ed
1a
f5
0a
0b
02
02
0a
fb
fc
01
01
07
03
fd
01
04
0e
fe
05
01
05
fc
fa
f2
e9
f7
fe
dc
18
f0
10
fd
04
13
14
07
04
03
0b
05
07
06
04
07
08
00
02
fb
0c
06
fa
f6
f9
ff
03
eb
28
ff
0f
f2
fc
08
08
0e
01
02
00
01
03
07
00
04
06
08
08
fd
01
f7
fd
00
08
05
19
0d
1e
03
09
f9
0e
01
04
0c
04
05
0b
00
03
09
f1
05
04
0a
09
0b
f5
f1
fc
01
08
04
1b
17
ea
03
fe
ef
10
0e
04
04
06
06
07
09
00
f6
f9
08
03
fa
0b
05
01
fa
01
f5
05
08
18
11
e5
0f
e8
fb
0f
09
02
05
ff
07
02
03
fb
fd
0f
03
00
f9
08
07
00
01
f6
ea
f0
f9
12
04
f7
03
fe
11
08
0a
05
00
f7
06
fd
ff
ff
fd
0f
07
0b
09
02
fb
f3
f8
ec
e7
eb
f0
03
d6
e8
ef
09
18
0d
0d
0e
01
02
0d
fe
0b
10
11
05
0c
0d
01
f7
ec
e4
e9
ea
e2
ef
fc
04
03
fb
e9
ff
09
01
0e
0d
0d
0d
0a
09
07
0f
06
04
08
07
f3
e6
e3
d9
ec
e5
eb
f3
f7
fe
fb
f9
ea
fb
04
06
0a
13
17
18
0c
0a
15
0d
fc
06
05
f1
e0
dc
e2
df
eb
f0
ee
e8
ea
f3
f1
e8
e7
fe
f7
02
0c
13
10
12
0a
0a
02
ff
fc
09
fb
e0
e1
e4
ea
f5
02
0a
ff
fe
f0
fd
11
e7
de
14
fc
04
10
12
12
15
11
09
fb
01
00
0a
f7
eb
f3
fa
fc
04
13
18
00
f8
03
14
2b
02
ee
0b
1c
0c
08
04
0b
0e
13
09
04
04
03
04
f7
ef
f7
02
07
04
07
07
ff
fd
05
07
00
02
0a
2e
1b
01
01
05
09
0d
09
0a
10
08
05
f3
f5
f8
fd
04
ff
04
fd
fb
f7
f2
f4
13
29
01
0f
f6
06
00
08
04
0d
0d
0a
04
09
0b
08
f8
f2
f5
fa
fa
f8
f2
f0
ef
e7
e4
f3
0f
35
01
0c
d3
ef
11
0b
fb
0b
14
18
0c
04
0b
11
fd
fa
f6
f0
f6
ec
e5
e3
ec
e6
dd
ea
26
31
01
02
e6
04
0f
10
07
0f
0f
17
11
0a
0f
08
fc
ee
f6
ec
e8
e6
e1
dd
dd
eb
e1
e6
0d
04
00
ff
f4
1c
11
11
0a
0a
08
08
fd
fd
04
00
fd
ef
f0
ea
e5
e0
d8
db
e0
e1
e4
d3
eb
f8
fe
fb
eb
05
19
05
fe
0a
09
00
01
0d
04
f0
f9
ed
ed
eb
e9
e3
dc
e1
e8
f3
f4
de
e1
0c
ff
fe
db
e8
0c
0a
fb
10
02
01
0e
19
0f
f3
f1
f6
eb
e5
ec
f2
fa
f9
03
ff
08
08
0d
28
02
00
0e
f2
ed
0d
14
fb
db
01
e9
0a
14
f8
0b
ff
f6
e2
da
02
08
f7
03
fa
fb
1a
24
30
02
ff
16
19
16
14
10
00
fe
1a
24
02
ff
09
01
15
15
fa
f9
02
02
00
02
ff
02
fe
ff
01
fe
01
02
00
01
0a
13
14
11
10
14
0e
ff
02
00
fe
ff
00
11
f1
ee
ee
01
ff
eb
e9
e9
e9
ff
01
dc
e1
e6
e9
1b
23
09
0c
00
de
eb
e4
f0
fa
fb
eb
00
fd
e7
17
14
01
eb
15
34
03
fe
00
dd
d9
e5
de
f7
05
f6
eb
ee
f8
f1
f0
f5
e7
ee
fa
04
0c
ef
04
08
ed
e3
fd
0b
f0
02
f1
e1
e9
f3
f1
fa
fe
fa
ed
f5
f5
02
06
ff
f7
f2
e9
fe
0d
05
01
02
f4
00
0b
ff
ff
17
df
e3
dd
00
ff
f6
0a
0b
f6
fb
fe
02
ff
00
04
f2
ed
fe
05
07
07
09
0b
05
07
fa
f6
28
dd
db
dd
01
f9
fa
0f
0c
02
08
0d
09
fd
f8
09
fc
ec
f8
fb
07
0f
10
0f
04
0f
fe
fc
1c
df
e0
15
06
f0
f5
fe
fd
f9
06
10
0c
fc
fe
02
e6
e5
fe
04
0b
13
11
08
0a
13
00
f6
15
f9
03
05
f5
e0
f0
f6
07
03
0b
0a
09
09
00
e3
dd
ea
03
05
17
14
0f
12
0c
11
f8
e2
11
fc
06
f4
f9
ec
f7
fd
ff
fe
04
0b
0a
06
f9
e4
d0
e0
fa
0e
17
18
0d
0e
10
11
e9
d9
09
f9
f3
fd
02
ff
02
00
f9
f9
01
ff
08
04
ee
cf
c6
e9
04
14
1e
1d
16
15
0c
f9
e9
df
ea
16
f5
f6
f8
06
03
fe
f6
ff
f9
fb
ff
01
f3
c8
d1
03
1f
20
17
13
14
09
0a
fe
e6
d2
ec
0e
eb
e9
e2
fa
fb
fd
fc
01
fe
04
11
ff
e5
c9
e3
18
2f
20
16
17
0a
00
0f
0a
fd
04
f5
ed
bc
e8
f3
07
0a
fb
fe
f6
02
09
07
f1
da
de
f8
1a
27
1d
15
11
08
0a
0a
00
01
ec
f3
e3
c9
eb
fa
08
06
f7
fb
f5
01
ff
f7
e8
e5
ea
ff
11
23
1a
17
11
04
0a
ff
05
04
fe
08
fe
ae
f1
ff
0b
fe
f7
f8
fc
01
fd
f3
f1
f8
01
0d
16
22
19
16
0b
09
0b
00
ff
02
eb
0a
fe
dc
01
f9
fb
fd
fb
f7
03
02
f4
ef
f7
f6
0a
09
0b
20
10
0d
0a
09
08
06
03
08
ee
02
01
e6
fc
f9
f1
fe
f8
fd
03
fa
ff
f3
fa
fc
fe
f4
03
12
07
01
09
04
09
0b
0a
f5
e4
01
0b
ea
04
01
fe
f5
f6
ff
03
f2
fb
f4
f8
f0
f8
fc
03
03
fd
f9
00
10
0a
05
fd
f1
da
04
ed
16
1d
0a
fe
f8
f7
f9
01
fc
02
02
f3
f8
f7
fe
f7
f9
f5
f0
f5
fe
fa
f5
fd
10
fb
fd
ef
09
0e
0a
04
03
03
ff
03
fd
06
f8
fd
ff
fe
fc
f8
f7
f7
f6
ef
fb
f5
fe
11
07
f1
ff
d8
f9
03
fb
07
07
01
04
fc
fd
02
ff
fd
f5
f7
fd
fa
f1
fe
02
fe
f9
f6
02
0f
f7
e2
ff
e0
e2
f4
fe
fe
fc
02
05
fc
f2
fb
f9
ff
f7
fd
fe
07
f3
f7
f2
f5
f4
f4
03
07
ff
f5
ec
dd
d9
ef
fb
f7
f5
04
0e
05
f7
fc
fe
04
08
02
ff
04
f0
f4
ed
f2
f2
f5
0c
f9
e5
ca
e9
0f
fd
f2
08
fb
fd
04
06
04
fd
ff
01
03
0d
13
0c
02
f9
f9
fa
f4
09
0b
0d
04
ed
d5
fe
12
e4
ec
00
fa
fc
07
09
09
02
0a
08
0b
08
15
0f
0c
04
02
07
0a
05
ff
09
fa
eb
db
fe
01
ce
e8
f2
08
03
03
0f
08
03
08
08
0a
0c
18
11
02
fd
fd
fc
0d
f7
ed
fb
09
ff
f9
02
00
d7
cc
e0
ec
fa
0c
4c
24
ee
f8
1f
1c
00
15
2a
04
f5
05
05
34
28
24
2a
f5
fd
1b
02
01
ec
e8
ec
ed
ff
fe
ff
fe
fd
01
fe
e4
01
12
13
0e
00
0f
02
00
ff
fe
fe
01
01
fe
01
fe
01
02
ff
07
09
06
07
0b
0b
09
fe
ff
02
08
17
17
fb
29
fc
f9
fe
01
18
16
16
11
00
ff
f8
f0
c4
d1
f4
0d
01
ea
e4
01
12
1d
04
10
0e
0a
f3
fc
ed
e7
fe
01
43
06
ea
e6
ff
ff
e5
f3
fd
0e
22
28
12
0e
f4
05
08
0c
00
04
f1
f5
f3
ee
07
f9
03
14
0f
fa
f5
fd
fe
16
e7
fe
18
1d
0a
0a
0d
14
02
f7
03
01
09
08
fd
00
fd
f9
f9
fb
fc
f9
ff
fe
f8
03
fa
3e
f0
17
15
09
fe
fb
05
17
fe
fd
fd
f4
f5
f6
fa
f7
f5
00
fe
f8
f7
ef
f1
f7
1a
f3
13
4c
e6
1e
08
f8
00
03
05
0c
04
06
f7
fa
fb
f7
04
01
ef
f8
f2
f3
f0
fd
00
03
08
f0
19
fd
0d
28
00
e8
03
03
09
0e
09
fd
fc
06
06
00
fb
f8
f1
fb
f2
00
fd
fd
00
0e
00
dd
e4
dd
ff
1e
10
f9
0d
ff
ff
07
08
fb
ff
07
0c
02
05
03
00
fd
f8
03
f7
06
02
04
01
1a
25
e1
e9
19
16
fb
00
f7
f5
fb
05
fe
07
0a
0a
fa
03
09
0a
02
01
fd
fa
fd
04
09
07
3b
1e
f2
f4
1a
03
ed
f0
01
09
fe
04
ff
fb
01
04
fb
08
0f
08
03
fc
f6
f8
f6
fc
f2
04
26
f5
e1
fb
0b
f7
ef
f6
04
03
fb
04
fa
ff
fa
fe
fd
00
fe
09
04
f6
f8
f4
ec
f1
e9
01
03
f1
ed
26
fb
f1
ed
f5
0a
09
00
fb
07
ff
fb
02
f8
ef
f9
0a
05
f9
fd
fc
f8
fa
f1
0e
0f
0a
08
33
f2
f0
ea
f7
03
01
ff
fb
fd
00
00
fa
f2
f0
f8
0c
03
f8
01
04
04
fb
fd
1b
28
09
07
19
05
f3
fb
f2
f2
fa
f7
f4
f5
fa
04
fd
fa
f9
fd
07
02
fc
09
06
03
fe
13
0a
12
00
ed
20
fb
f6
fc
ee
f9
fb
f0
f2
f1
f9
0a
00
f4
fd
06
08
05
0b
0a
07
ff
f7
00
fe
ed
02
f6
17
f8
f1
05
ff
fc
f6
f2
f0
f4
03
05
fb
f8
fe
fc
ff
04
0e
08
fd
f9
fb
f4
08
1b
fa
f1
37
0b
00
fe
fe
f3
f4
eb
f0
ee
fe
03
01
09
08
05
01
13
10
f8
ff
fd
f4
ef
19
68
f9
fe
2d
20
09
04
00
02
fe
f1
ec
e8
ed
f0
f7
fb
00
02
04
0b
07
f7
03
fa
f3
00
1e
53
11
1f
26
2c
1c
0e
0a
11
08
05
fc
fc
f5
f9
f9
fc
01
fc
0a
0d
05
fb
03
02
fe
13
22
2f
fe
e4
04
3d
21
19
16
1a
1f
0f
09
0f
05
00
ff
fd
06
0b
08
01
ff
fc
fd
00
03
01
0b
2d
fe
e6
24
38
1d
1a
11
19
22
19
14
12
0b
0f
11
06
07
07
0b
01
fb
fa
f3
fe
f6
03
21
2e
01
e2
2b
23
15
10
0a
12
18
1d
14
0e
0f
0f
09
0c
01
0b
fe
fc
01
08
04
03
f4
07
2c
2f
07
06
13
1f
0b
fb
fe
01
0b
17
12
0a
0f
09
0a
0c
04
0a
fd
f8
03
05
fb
f8
fd
09
1f
3e
19
fb
25
2c
02
00
f3
f8
fd
0e
0f
16
13
0f
14
10
12
0d
09
01
0b
03
fa
01
ff
f8
00
0d
02
f8
f9
07
01
01
02
10
0c
0d
12
24
23
1a
19
1e
27
14
0c
03
18
05
04
05
01
fe
f2
0f
00
ff
ee
04
08
02
24
32
1b
15
1e
29
11
19
20
13
0b
ed
fa
10
27
19
15
11
0b
0b
19
28
fe
00
28
08
0e
1b
20
1d
0b
17
27
29
27
15
08
01
01
f8
f5
29
34
27
18
fd
fc
f9
06
10
fe
00
0f
17
12
02
00
fe
02
2b
1e
02
fe
16
01
10
08
15
21
0b
fe
00
01
01
01
fe
00
01
ff
00
02
ff
01
06
09
08
0b
0b
09
07
02
00
fe
ef
de
e5
0f
e8
ff
fd
fc
f8
fa
fc
fd
fc
fe
01
17
1d
17
ef
0d
19
19
fa
04
fa
03
02
0f
fe
fb
06
03
0a
f1
21
fd
ec
d6
e4
2c
12
01
ff
1e
1a
f7
e4
02
19
29
10
19
19
15
14
0c
15
14
16
1d
16
f8
ff
fe
08
05
fe
0c
f6
fe
fd
2a
10
08
fd
10
11
05
f8
00
07
07
05
fc
03
06
00
07
10
03
00
04
06
0b
12
17
08
fe
0f
13
f8
f9
ed
ff
0d
08
f8
f7
f3
ff
fc
02
05
fa
fd
fa
fd
02
03
fd
0a
fe
0e
f7
ec
1b
02
19
f9
01
f8
f2
f1
f5
f9
f4
f4
fb
04
09
02
ff
fa
ff
fc
03
05
f9
0c
02
10
04
07
15
0a
2e
ed
05
0a
01
f8
02
00
fb
01
fd
f9
f8
fd
04
04
00
01
fe
fd
00
0e
11
0b
15
f9
08
25
1b
00
01
04
0e
09
12
0e
ff
04
09
01
fe
03
05
0b
05
01
fe
01
06
01
0f
11
20
0c
2d
1d
0b
f5
f1
f8
13
03
0e
0c
0c
07
08
12
05
0a
0a
10
07
fe
04
0c
07
fd
07
0c
11
14
25
2d
24
eb
f8
ff
12
04
06
0d
11
0d
0f
06
04
07
03
0c
10
0f
08
0c
02
fa
f8
f2
f3
fc
ef
30
04
ee
f3
fb
fe
ff
04
01
09
12
13
05
0a
0b
fd
07
ff
02
fa
0a
ff
f1
de
d6
ca
e0
ea
30
e5
f9
f0
dd
e5
fe
00
08
04
11
15
19
13
0d
fd
00
fe
fd
f7
f0
e4
df
d3
c5
d3
fb
01
22
e5
f8
ee
d9
e0
f6
fd
00
ff
06
0d
17
05
fe
fb
03
fc
ff
f4
f2
d7
de
d2
d2
ec
03
fe
02
ec
fa
ed
de
dd
e5
e6
ef
f6
fb
0f
0c
fd
ff
00
fc
f7
f4
ed
ef
e5
e3
f2
fa
03
03
fe
02
d1
f3
f9
f3
eb
d8
e1
ec
e5
f8
08
06
01
06
07
00
fd
f3
ee
fa
fd
08
10
0e
0d
c6
02
0a
d9
f6
fe
fa
ed
e3
e4
e4
d9
df
f3
f9
07
10
04
ff
08
04
fc
08
12
16
20
12
07
e4
ff
08
e5
01
0b
07
f5
fb
f5
eb
e2
d9
e0
ee
00
fc
05
fa
04
07
0a
14
19
18
1e
09
08
1a
02
f2
f7
19
19
15
0e
08
01
fa
ed
da
d6
e5
e8
eb
f3
f9
00
ff
04
0b
16
0b
0d
09
14
28
01
14
1a
1a
12
11
15
11
09
0c
f9
e9
dd
dc
dd
e3
e9
f4
fb
fd
fc
fe
ff
00
fc
f8
09
09
00
15
43
35
12
10
17
17
07
0b
02
ee
ef
e0
d8
df
ef
f1
f2
f8
f8
f9
00
fc
01
00
fb
02
00
f2
06
1a
10
09
08
15
0f
13
14
07
01
f5
ec
f1
f0
f5
f5
f4
f2
f8
ff
01
02
03
ff
fa
02
f7
fd
05
0a
00
f5
04
0d
0d
0b
15
1f
0e
0a
03
f9
f7
fe
fd
f2
f8
fc
fe
ff
0d
0f
0b
f2
e4
05
f4
f7
02
fa
fa
05
05
0a
19
1e
15
14
0c
0a
fa
fc
fe
f9
fd
00
ef
04
08
fd
0b
e5
f5
0f
f6
ee
f5
00
02
05
0a
00
00
0f
0e
16
11
14
12
05
06
03
fd
fe
f4
02
01
ee
f7
00
f8
fe
f0
03
03
00
fd
fe
04
ff
f9
01
08
10
0b
01
0b
0b
01
fa
04
05
f6
02
f8
d6
e7
ff
02
f5
e7
01
0e
03
ff
fa
fd
06
09
15
0f
11
1c
13
09
01
05
01
12
0d
ff
05
f4
ea
01
ff
00
db
ee
0d
f6
dc
f3
1b
08
fc
ea
0d
fa
07
1a
22
f5
03
f0
ee
dd
e4
ec
ef
0c
27
06
00
00
fa
fa
08
0c
fc
01
02
d7
db
00
01
e5
fe
f5
08
0a
15
0b
00
ff
fe
02
ff
02
00
fe
ff
fe
01
01
ff
f4
f5
f2
f4
f3
f3
f6
01
ff
02
f9
fc
fb
16
1a
fd
fb
fc
f4
ea
ea
ec
f0
01
00
11
ff
e9
01
e4
f0
d6
f2
f1
d3
e8
f8
e9
1a
1f
01
0d
f9
ec
df
e5
f0
e5
0a
32
0f
01
00
04
f8
00
20
fb
f1
db
e2
e8
df
ea
ed
f2
f5
f6
03
ee
fe
03
f2
f5
fa
03
0d
3b
53
01
16
10
11
06
02
03
f5
ef
ef
ee
eb
e1
e3
ec
f1
f9
00
ef
ef
f5
fa
f5
f9
03
fd
05
24
25
02
29
05
f8
f9
f6
ec
f3
f5
fb
ff
f3
f6
f3
f4
fa
01
fb
ea
ed
f1
ee
fd
f6
03
07
fe
20
f8
24
14
04
10
01
f5
03
ff
06
05
fc
ff
ee
f0
ea
f0
f3
ed
ea
ed
f0
f4
f3
00
ff
f9
19
fe
f9
fd
09
ff
03
fa
01
fe
08
05
ff
ff
fd
f7
eb
f8
01
ff
f9
f5
ed
ef
f8
fc
fc
df
25
e4
07
f9
05
06
05
00
04
01
04
08
fd
09
07
fa
ff
0b
16
01
06
09
03
04
f7
f1
e3
d3
fa
e4
24
f4
f3
ff
04
05
03
fe
00
0c
07
06
05
05
18
13
12
03
05
0c
f5
f7
eb
e0
c9
ca
fb
10
f5
e4
f3
f1
00
fa
f7
04
01
0d
01
04
06
14
1d
1a
12
06
0c
0c
f9
00
ee
dd
d7
da
04
2e
ff
e7
e9
ef
fd
fb
02
09
fd
fb
f9
06
07
16
1f
1a
18
0e
0e
06
0e
08
f7
f7
fd
0c
13
0d
1a
da
dc
ec
ff
fc
02
05
fd
ff
00
01
03
06
14
1a
0f
07
fb
0a
0d
0b
0e
12
15
07
00
07
e7
db
e9
fb
fe
fa
f6
fa
fc
09
07
02
06
0d
13
15
0c
05
05
0d
12
18
10
16
32
fc
02
19
13
f0
ff
fe
08
ff
02
09
07
0b
fe
0c
11
11
13
10
13
0c
14
0e
09
0d
ff
08
25
11
0f
1c
0b
01
03
fc
ff
fe
fe
0a
0a
ff
00
08
0a
12
08
08
05
04
0a
03
f1
f8
f2
01
1f
56
0e
24
14
0b
fe
f4
fa
f9
05
04
0c
04
ff
07
08
0f
03
0b
04
08
07
02
ec
ec
f0
ed
fa
ff
f7
03
fb
00
05
fa
01
fe
09
01
04
05
06
07
08
0a
09
0a
01
ff
fd
fe
f0
f0
f1
e6
de
e6
fa
e4
f3
f7
03
02
fe
fd
03
f9
fe
08
03
fe
0a
03
02
01
02
fc
f3
f2
f9
fa
f8
f2
e0
ec
0f
e2
f9
f7
08
08
01
ff
fd
f7
fb
fd
f2
f5
03
07
05
09
ff
f9
f8
f7
fe
f4
f3
fc
f7
f0
02
0b
00
fc
01
07
07
06
02
f9
f9
fd
f0
fc
08
13
17
0c
03
00
09
07
fb
05
04
f7
10
18
00
ff
ea
00
05
08
07
fb
fe
fc
fc
f9
f9
ff
07
0e
19
0c
07
00
02
05
06
0f
0e
fe
13
17
ff
dc
dd
f7
13
04
fe
fa
04
f6
fb
fd
fe
08
07
10
0f
09
fc
ff
01
02
11
0c
0c
fe
24
46
1b
df
04
10
0b
fe
f8
02
02
ff
03
02
03
02
01
fb
00
ff
f6
00
09
09
10
12
06
f8
2a
41
17
f8
18
fe
fe
f6
00
09
fb
fd
fa
ff
0b
04
08
f6
f7
f5
ed
01
05
0d
05
07
ff
04
36
35
01
f8
fb
00
ff
03
06
06
f3
03
f6
03
02
02
fe
f3
ef
f1
f8
05
10
0f
03
11
15
27
39
4e
02
02
0f
04
fc
0b
0a
f5
f1
f5
ef
fe
fd
08
06
01
fa
ef
03
0b
1b
0c
0c
1a
2a
44
26
39
fe
01
f9
1d
e8
f7
09
f4
27
07
f2
f2
09
07
ea
e6
f5
f7
fb
fe
13
07
e1
f3
2e
5e
3a
41
02
01
ef
eb
f1
fd
f5
02
02
11
16
01
fe
e6
02
ef
f3
f2
e9
f4
01
00
ff
00
fe
01
fe
02
ff
fe
fe
01
fe
0e
16
17
13
17
17
13
02
00
02
0f
20
1d
17
10
1d
1e
0d
0e
00
03
02
02
01
00
12
23
0e
f5
03
fc
11
f1
f2
c9
fb
f2
02
09
fa
f1
06
05
09
1a
0f
02
15
17
0c
24
01
02
20
12
f5
fb
0a
03
06
ee
f5
ec
12
10
00
0a
03
01
fb
f6
f7
09
0f
16
11
1e
25
14
ff
fd
26
f0
f4
08
0b
0a
fd
0c
15
0a
13
02
03
fd
0a
01
fd
fe
03
08
0e
21
17
12
25
0b
00
0d
06
f3
07
10
0a
1b
16
17
1a
0f
0e
10
10
03
02
06
04
07
0f
14
17
21
21
21
16
1a
0f
04
21
ff
16
0c
02
0a
07
0b
0b
07
0b
11
05
0b
00
03
04
13
19
1a
16
0b
0d
0b
0b
18
15
12
2b
f8
06
12
0c
fc
07
09
04
0e
10
13
12
17
0f
0b
fc
04
0b
0a
0a
05
fe
ec
ef
04
fd
16
34
1c
11
15
12
01
00
06
ff
0b
0a
03
0f
12
06
e9
e4
dd
dd
d9
db
d3
c4
c3
bc
e7
ff
10
43
10
04
01
f6
f9
f5
f8
f7
fc
fd
fc
fe
03
f2
cb
cc
b7
9d
8d
81
87
94
a2
9e
b5
00
ff
11
fe
01
01
f0
f5
f7
fe
f8
fb
00
00
f4
ed
d7
cc
c3
bc
b5
af
af
a1
9e
ad
b7
b9
02
01
ea
ed
f9
fd
fc
ff
ff
08
03
fb
ff
01
03
03
f6
f7
f2
e8
ea
e8
e3
da
d5
db
d4
c4
fe
0c
ef
01
05
ff
03
05
ff
09
04
fb
fd
fe
0b
12
16
0e
0a
08
04
ff
ff
ff
fd
fe
00
f1
f4
09
f3
0f
0e
0a
06
02
07
07
00
03
08
0d
0b
0d
0c
0b
03
0c
0c
0b
06
0a
01
0d
ff
df
ed
00
09
0e
0e
0c
04
10
0d
07
05
07
0c
08
04
0a
06
08
06
07
05
08
14
15
12
11
fb
fa
0e
15
fc
f9
fb
f7
fe
0b
fa
02
0a
0c
04
fe
02
0b
09
09
0e
06
ff
00
09
06
09
11
f4
d2
0d
fc
06
f5
fb
f8
f0
f8
f8
01
10
03
ff
fe
08
07
08
02
f8
fa
fc
02
03
07
06
0c
fd
f1
02
0c
e8
fd
05
03
fc
f0
01
06
01
fa
f4
f9
f5
f2
f8
f1
ed
fc
fb
03
05
03
10
0a
14
01
fe
1d
f4
10
05
04
fd
fa
05
ff
fc
fd
f4
f9
f6
f7
0a
08
09
11
07
02
06
fd
0a
0a
1b
1c
dc
04
f4
16
06
fb
03
0b
08
00
f9
ff
fa
f4
eb
f1
fd
01
03
03
f7
f8
fa
f2
fe
fb
0d
10
fe
ff
07
1b
04
03
0c
13
09
0a
ff
00
fa
f9
fa
ff
0c
07
04
06
04
02
fc
00
ff
ff
06
f0
01
f7
17
06
0e
0f
13
03
0b
05
09
05
fb
fd
02
0e
10
02
f7
07
15
07
04
06
f2
f6
f1
e0
02
1c
1f
11
10
0c
0a
02
0d
0c
fd
02
01
00
0c
07
0c
ff
ff
08
13
05
00
00
f9
f2
0e
fa
fb
03
00
14
0d
07
02
f5
00
05
f9
f9
fe
08
07
04
08
f8
fa
01
09
fb
fd
ff
05
01
1d
1d
e7
00
f3
03
07
06
ff
f7
fb
0b
fd
f7
ff
09
0a
06
fd
0a
fc
00
0c
01
f4
f2
fb
fd
24
36
02
fe
e0
f9
0e
11
02
f7
f8
00
00
09
0c
0e
09
00
f8
01
01
05
09
fd
fc
f6
f7
fe
04
23
fe
02
f4
00
07
07
fe
0a
05
ff
09
09
fe
07
ec
f7
fa
01
ff
fe
ff
02
02
f7
fd
00
1a
fa
fe
00
e6
f1
02
df
fa
18
16
0a
10
fe
0e
fd
eb
fd
0a
fa
dd
d2
fd
eb
07
1e
09
16
1a
db
00
02
02
00
01
00
12
ff
ff
1c
17
01
ff
e1
01
17
15
10
0b
15
00
01
02
fe
fe
fe
fe
01
fe
00
fe
ff
00
01
fe
01
01
ff
fe
fe
fe
fe
00
0d
1a
17
14
0f
13
15
06
0d
01
fd
02
fe
01
00
f5
f2
ef
10
0e
ff
13
29
07
ee
ea
08
11
ff
0c
03
01
f3
02
e5
00
2a
13
38
23
18
fe
00
fc
12
25
19
f9
f3
0b
13
1d
0c
f4
06
17
16
11
10
23
1b
0f
fc
ff
10
02
0c
fd
15
ff
01
e4
02
20
13
03
02
0e
0d
18
0f
03
0c
10
18
13
12
13
fe
04
0f
0d
0b
02
0a
f1
ea
f9
f6
ec
f7
1f
17
08
0b
10
09
10
07
07
13
07
08
06
06
fd
fa
f6
05
01
01
00
06
f5
e8
f8
f2
f3
f4
1d
1b
15
16
13
0f
07
05
0b
0b
01
08
09
fb
fa
fa
00
fc
f8
f5
03
05
05
e8
06
fb
e4
f7
10
06
0b
12
06
06
04
0a
0e
13
0f
15
0a
f7
ff
03
09
00
fa
fb
fe
0a
11
0b
f3
f2
d7
e3
f2
01
02
08
04
00
05
fe
05
05
07
16
0a
05
00
06
06
00
05
fd
fd
08
09
da
f7
fc
f1
ef
eb
f9
f4
01
01
08
08
f9
f2
f5
00
09
06
00
03
02
02
f5
fe
f5
ed
f0
e3
d2
f2
1b
0b
02
ef
e3
f3
fb
f4
fc
fa
f0
f1
02
09
ff
02
fe
f6
f9
ee
e9
eb
e9
dd
e3
d8
c9
f9
1f
0f
11
fc
f5
f8
ff
ff
f9
f9
04
0f
16
13
09
04
fd
f8
fc
f0
ee
f7
f7
e4
ec
e9
0b
f6
17
1d
01
f0
fb
02
fb
00
ff
00
16
19
22
13
0d
04
00
07
0c
05
fa
04
07
f5
ff
fc
00
07
08
fd
10
00
03
03
fd
03
0a
0c
1a
15
1a
11
0c
01
05
0b
0d
09
fe
04
fd
fd
0c
02
f3
14
17
f5
29
1d
12
09
0a
06
02
0a
16
16
12
03
07
01
fe
fb
00
02
fe
fb
f8
fa
09
02
e8
18
f3
e3
2a
23
09
04
04
07
00
10
17
1f
13
fe
08
03
fe
fb
f7
f9
fb
f3
f3
fb
ff
0a
33
19
ee
ec
0c
10
fc
ff
fc
04
07
15
1a
1c
0d
07
ff
f6
f7
f8
f6
f0
f5
01
fa
f6
02
0b
14
10
fa
01
fb
fc
fd
05
0c
0b
10
13
18
12
02
f9
eb
ec
f4
f8
f3
f2
f9
03
fa
fb
0c
fd
fd
0d
0a
06
04
04
03
04
0d
14
14
0e
13
04
ee
e3
ea
e9
e7
e9
f1
00
0a
07
ff
f8
06
0d
1d
21
1a
13
f7
03
0a
0d
0d
0e
0c
0c
05
f8
e1
dc
ed
ed
ed
f2
f5
01
08
0c
07
07
07
04
2d
01
20
10
fc
05
03
0d
11
0c
0c
06
f1
de
e0
ed
f6
fa
00
fa
f9
fa
f8
02
0a
0e
10
f9
00
ff
12
05
10
19
0b
16
0e
0c
12
09
f0
e7
f2
f9
00
03
00
fe
00
ff
f3
f7
f9
fd
06
fa
d3
fe
11
ff
03
16
0d
0d
09
02
fe
f9
f1
f0
f9
f4
f8
f4
f5
f4
fb
f4
f4
ed
ed
ee
eb
e6
bd
fd
ec
fa
11
14
04
02
03
f8
ef
f6
f2
f3
fe
f7
f6
f3
f3
f9
fc
ec
f4
f6
f8
fa
f5
01
e5
01
ea
e8
18
13
0a
03
01
ff
ed
ed
f1
f8
03
f8
ef
f6
f8
fa
01
ee
f0
f4
ef
f0
f1
e3
dc
ff
eb
14
12
10
ff
f8
02
f7
f2
f5
f4
f8
e9
f1
f3
f8
f7
f8
fa
f4
f3
fa
e1
e4
e3
e9
e1
02
ff
0d
f8
00
ff
eb
ee
f1
f7
f6
fb
f0
d5
e7
f3
f1
fd
f0
ee
fa
f6
f4
e5
ef
f3
e7
00
ff
00
2f
ea
f1
28
12
f9
d8
eb
ec
ef
cd
c1
d0
f1
d8
ec
f5
07
ff
1d
13
03
fc
f4
ef
12
02
02
00
ff
fd
00
0d
02
01
09
f5
02
02
0d
01
11
0e
15
03
01
01
01
00
02
02
fe
00
fe
00
02
02
01
ff
fe
02
02
02
01
ff
00
00
01
02
ff
01
00
ff
f3
08
09
ff
00
ff
fe
01
02
01
ff
03
fd
fd
17
20
0b
0c
18
fd
01
25
05
e1
e9
f7
fa
0e
1d
33
07
f4
13
23
0a
0b
fe
01
ff
f5
04
f5
04
1d
0b
0a
0c
ed
00
11
06
fa
09
04
f6
f8
0c
1c
0a
fb
f4
14
03
f1
e7
01
02
f7
06
f6
e9
ea
f1
ee
eb
ea
f9
f8
f9
0f
0e
02
03
03
ff
ff
ff
f3
f8
fc
f7
ef
e1
0c
f9
fe
f8
e0
d4
d0
ea
e7
eb
ef
f5
f0
f6
02
fd
01
00
01
fe
02
00
fd
04
0d
0a
0c
39
0f
fc
0a
1b
f9
e1
ef
05
f9
f2
f0
f5
f7
f4
f8
fc
02
00
05
fd
00
06
fb
04
04
04
0b
23
11
0c
16
23
09
f8
01
0c
06
06
07
06
0a
12
0a
07
07
03
09
07
05
04
fd
00
fd
06
16
fd
e5
15
fa
07
02
19
19
1b
1e
0f
0c
07
11
0d
04
0a
0f
fa
f4
ff
01
f6
f9
fd
f7
03
15
17
0e
11
fc
10
18
26
1f
26
1f
13
18
0e
09
03
07
0b
09
ff
fc
01
00
00
06
0b
02
05
11
00
13
fa
19
19
21
1d
19
1e
21
1d
1d
17
0f
15
16
10
11
03
04
0c
06
0c
0b
05
02
01
f9
e4
20
ff
24
22
24
1e
17
14
1a
12
0a
05
fb
0d
06
ff
04
05
03
00
06
06
04
03
0a
12
05
02
1f
fc
35
0d
0b
ff
ff
f8
f7
f9
f6
f4
f3
fd
fe
fb
fd
fe
f5
fd
ff
fa
fa
fb
f8
05
08
16
03
ed
18
f6
e7
e1
e3
e6
e4
ea
f9
f5
eb
f6
0a
fd
ff
fd
fb
f8
00
f8
f9
ed
f1
f4
f4
08
03
ec
06
e7
d9
d7
e1
e9
f6
00
06
fd
f5
fa
0a
03
ff
07
fd
f5
fc
fc
f4
ee
f7
ff
f2
05
19
f4
f8
cb
d4
e2
f2
fc
03
0c
02
f9
f7
00
04
fe
fb
00
f4
f5
ff
f9
f7
f3
ff
f6
e0
2d
18
f6
f8
d1
e4
f1
fe
09
0b
10
06
ef
ee
f5
05
09
0d
02
f8
00
f6
f4
fe
f9
03
fc
e8
14
02
f7
02
e9
f4
04
0f
12
0d
14
00
f2
f9
01
07
05
02
f9
00
ff
f5
00
0a
08
fc
03
ea
08
02
15
14
0e
0f
19
14
19
0e
05
fb
f4
fa
00
07
01
f7
f0
02
07
fb
fd
ff
0d
0a
03
0c
20
1c
0b
2e
23
16
0e
19
18
10
0a
03
f3
f9
f6
f1
f6
f9
f8
0b
06
fd
fc
07
08
fd
f0
0c
2e
fe
0b
2d
1a
0d
0d
0e
08
05
01
02
fe
f9
f1
f0
f1
fc
01
0b
06
0a
fc
05
02
f5
fe
f7
01
01
19
35
0e
0a
0c
03
f2
f4
fe
04
ff
f9
ff
f1
f2
fb
f7
fc
fd
02
f3
04
03
f4
08
08
0a
02
1f
01
0a
0b
04
fa
f9
00
0a
fb
fe
fc
fc
ea
ea
f0
e6
ec
ec
f9
f6
fd
f8
f9
01
f8
c0
f2
1a
3e
0b
03
f8
f2
fb
02
ff
f8
02
01
fc
f2
f5
ef
e9
fa
f4
fa
fe
fd
f8
fd
09
fd
ce
f5
fe
19
ef
f1
fc
f1
fd
02
f5
f6
fe
03
0d
09
0a
fd
f5
02
f5
ff
01
fc
fd
fe
04
ec
c5
02
ff
e9
eb
f3
ec
f4
fa
f8
f5
ff
f3
fd
f9
04
08
01
ff
03
f1
e3
e9
fe
0c
01
f4
ed
c3
ff
02
fd
e9
e9
f3
01
07
02
ee
f0
eb
f2
f4
ff
fc
ee
f7
ef
e2
e8
f0
fe
fd
00
f0
f4
fa
fe
ff
05
e0
e2
08
1b
41
03
ff
e6
ff
09
fb
05
fe
e7
ec
dd
f0
0d
1c
07
15
02
e3
e2
0b
02
01
fe
ff
fe
fb
03
ff
01
f6
00
00
00
03
02
01
01
02
ff
ff
02
ff
ff
02
ff
02
01
fe
02
ff
02
00
02
fe
fe
02
ff
ff
ff
02
fe
fe
ff
01
ff
ff
fd
fc
00
00
02
02
ff
fe
fe
fe
01
02
01
f8
f0
be
e8
0c
13
12
0b
00
0a
09
0d
1a
f9
e6
fe
fc
f0
05
f2
ec
e3
d8
f7
fd
ff
00
f9
ea
e3
da
ad
98
b9
ba
9b
a2
b5
9b
a2
b9
b7
a9
c0
ba
a2
bd
cf
d5
c7
d8
ed
e8
02
06
e4
ef
f7
fd
e0
cf
d8
c9
c6
d1
d3
c8
cf
d4
dc
d7
dd
d6
dc
e9
ef
e3
d5
e5
e8
dc
fa
06
0e
fb
04
05
fa
ee
ee
ec
eb
f7
f1
ea
f3
f1
f4
02
fe
fa
fc
01
07
f5
f6
f8
d6
d8
fb
0f
22
f2
ff
ef
02
ff
02
09
08
01
05
07
04
01
ff
06
fc
fd
fd
01
03
ff
f7
e9
bc
ba
ff
fd
17
ff
f6
ec
f5
fe
00
0c
09
08
05
09
00
01
02
04
04
fa
fb
05
04
06
fd
e2
d1
db
e0
00
03
06
e8
f4
02
ff
fe
fe
fc
ff
fe
00
fe
07
06
0f
0c
ff
fc
01
fe
00
fc
e2
d0
fd
24
19
0f
ed
ea
fa
05
01
fe
f6
fd
ff
04
04
0a
0d
0f
10
09
02
f9
08
06
01
f7
e2
db
f9
24
ff
19
e5
e3
ed
05
03
ff
ff
02
03
04
06
0a
08
0d
11
08
05
01
0c
02
f6
f3
eb
ea
09
ec
0a
09
02
fe
fb
09
09
11
0c
10
07
0d
11
0f
0b
11
0b
08
04
04
0c
02
fa
f6
e6
de
07
e4
0a
0c
09
09
02
01
ff
04
0b
0b
02
07
0c
0c
0a
0b
06
01
00
04
0a
fe
f0
f1
d3
e1
09
f7
e5
e6
f1
ff
06
fb
fa
04
10
0a
00
05
01
01
05
07
05
ff
01
ff
0a
f9
f6
08
f9
fd
06
e6
eb
ea
ee
f3
fb
fa
fe
0e
10
08
04
02
06
08
03
06
01
11
0e
07
07
fb
01
0d
04
01
13
06
cd
03
e9
e8
f7
03
03
00
06
00
09
03
07
04
fc
fe
fb
01
01
02
0d
07
07
09
ff
f7
1f
03
ca
0b
fb
f5
fb
06
fd
f7
fb
fd
04
0b
fe
f8
fa
fb
fc
01
fa
fd
08
0e
10
0e
f9
fc
2b
ea
dc
0c
fe
f7
fd
04
fe
fa
02
08
0e
05
02
01
fe
f6
02
06
04
0e
1a
0e
0f
07
fb
08
25
ec
ea
36
0d
01
f7
04
07
01
04
0b
09
0a
0a
08
06
04
04
07
05
0c
0d
0c
08
fc
ef
fe
18
1c
eb
38
11
f7
fd
04
fe
02
03
09
0a
0f
0c
12
0f
09
05
0a
ff
04
05
01
0d
fa
ec
02
0d
02
e1
0f
e9
ea
fd
05
03
fd
02
0f
18
1a
14
0e
10
0a
0c
0a
fd
02
ff
f9
fd
f4
fe
fc
1c
01
f9
06
bf
e3
f5
ff
05
f9
fc
07
0f
19
15
0e
0f
05
0d
06
02
06
fe
ff
00
f6
fe
fb
1b
02
15
ed
cb
e7
f3
f3
06
04
ff
fa
ff
07
02
08
02
01
02
fe
f7
02
ff
fc
ff
f5
e6
d9
d0
0b
01
ef
d9
f5
f0
f7
00
fc
f5
ec
f4
fa
fe
07
ff
04
00
02
03
fc
fb
ff
09
f7
e9
d9
d0
fe
ff
fb
dc
f0
f9
f7
f2
f0
eb
e8
ee
ee
f0
fa
f5
fb
f5
f5
f9
f2
f4
f6
f5
f2
e9
c4
d6
02
fe
c4
da
e0
e6
df
d7
d6
d7
d3
c9
c2
c2
c9
c6
c9
d3
d3
c7
c1
b8
c3
c5
d2
cc
ca
da
fe
ff
03
fc
da
d5
c9
b6
c5
d6
bd
ab
91
9a
a0
9f
a3
b3
c7
b2
9c
a2
b2
c8
cf
d9
e5
10
fe
01
f7
fc
d7
df
e4
da
ec
f5
f1
01
ea
d1
e3
ec
fa
07
17
1b
0d
1a
13
17
f3
d7
eb
00
01
fe
00
fe
01
fc
01
00
02
ff
fd
00
ff
01
01
00
fe
ff
02
02
02
02
ff
00
02
00
ff
ff
fe
01
00
02
01
05
0d
10
0c
10
0d
07
fe
ff
01
10
1c
13
fb
f7
18
15
08
0c
02
02
fe
00
ff
02
fe
f7
00
1f
1e
fa
06
25
2b
16
04
06
1f
0a
02
f6
0e
fe
10
f7
f0
ee
1a
f6
e7
1f
fe
fe
05
e8
db
fe
06
ee
01
01
fe
f0
f2
f8
f7
05
f6
ff
02
ee
ef
e7
e9
f6
0a
fa
e4
1c
02
0e
22
0a
f5
01
08
fb
fa
f8
f8
f8
fe
ed
f2
fe
02
f5
fd
f4
fd
fb
f2
f2
f9
ee
f5
19
18
13
1a
07
06
fe
fa
fa
fe
fa
fa
fe
f1
f2
f5
fe
fe
f6
01
ff
fe
03
05
f9
04
f7
06
32
1a
1e
3e
13
09
01
f8
02
05
ff
f8
fc
f6
f8
fd
fb
ff
fc
07
fb
fd
07
04
fd
fd
f3
04
23
0e
10
13
08
07
06
02
02
ff
fc
03
05
fd
02
08
ff
03
fb
01
f6
02
fc
f1
fb
fc
f6
0a
2e
f5
e9
15
17
0f
04
f9
02
0d
0a
02
09
10
05
fe
f9
fe
06
fc
f0
00
f5
f3
fe
02
05
10
f5
d9
e1
16
1b
09
03
ff
0c
0c
02
f9
05
08
ff
f2
fc
07
05
01
fd
09
ff
fa
00
04
f6
f1
f2
df
e4
09
12
17
06
06
0b
13
07
fe
fd
00
02
fa
09
09
00
fc
04
09
0a
04
05
05
f8
f4
f4
1c
e4
eb
f8
0c
03
0b
0f
13
04
05
04
fd
08
fa
05
ff
fa
09
0a
0a
ff
08
02
02
fd
ee
18
19
dd
05
ee
01
09
10
04
04
03
04
04
01
fd
f8
fc
fe
f7
f9
00
00
f8
03
05
05
0a
e8
ed
03
de
f7
f5
00
09
0e
00
fb
04
06
09
05
f7
f9
f8
f5
f6
f9
fe
fd
05
1a
15
1e
18
04
ef
00
ef
ee
04
0c
07
14
0e
04
00
02
04
fd
fa
f6
f2
f0
fa
09
08
15
14
1f
1e
1e
0b
fd
e3
0b
0f
ef
18
0b
07
11
0a
08
04
ff
fc
f7
fa
fa
f2
f3
fd
0c
15
1e
1b
0b
12
09
ed
e2
0b
0c
f5
e7
14
09
fe
ff
00
09
01
08
08
04
00
ff
fc
f9
0b
0e
19
13
0f
06
fb
eb
e0
e7
fa
01
ef
ed
fb
fb
ef
03
06
02
ff
0a
0a
0a
08
fa
ee
ec
06
0a
09
fe
ef
dd
d9
db
d2
d3
d6
00
ed
16
02
f4
f4
07
01
fe
06
0b
09
12
09
04
e8
d8
e3
dd
cf
be
af
a4
ad
cd
cf
e6
ed
ff
ed
26
0c
ee
f8
08
f6
04
08
09
00
11
0a
00
e3
c5
c2
ba
ac
a7
ab
ac
bb
d4
df
f0
f8
02
00
23
f8
f5
f8
09
03
0f
0f
08
0e
10
05
00
f2
db
d7
da
df
e9
d8
e4
d8
e9
f6
02
ed
ff
02
eb
eb
fd
ff
09
08
09
0f
0d
10
10
0c
0c
0a
fd
f4
fb
06
05
f2
fc
e8
f5
f1
fb
da
ff
1a
f0
f6
03
fe
fe
06
0a
0d
14
15
0b
06
04
0b
0e
05
00
fb
fc
fc
00
02
f7
e5
02
f5
15
ff
f6
f2
09
06
04
04
01
05
0d
11
0b
09
08
08
14
0a
03
fd
fe
03
07
0f
05
06
1b
0e
01
ff
e8
e9
04
06
13
0f
0d
0d
0b
02
07
13
17
0d
0c
0b
06
00
fc
03
00
05
0c
0e
22
2d
01
01
0a
ec
07
04
04
05
07
0f
0b
03
0d
12
15
0d
01
00
06
0c
f9
fe
08
07
fe
07
0b
03
fe
00
04
f6
06
03
f4
f2
f1
fd
11
17
0c
0c
0e
0f
05
06
0d
1c
16
0e
1b
0f
fe
eb
f2
20
02
01
0a
06
f1
0d
25
0f
ea
fc
0d
10
f5
15
10
fa
f9
dc
e8
09
00
f6
f8
10
f1
fb
12
2f
02
00
01
fe
f8
fa
0c
fe
ff
21
19
01
02
1a
02
13
0f
fe
f5
0b
00
00
00
01
fe
fe
00
00
fe
02
02
ff
01
12
14
15
15
18
15
13
fe
00
00
14
15
0d
f4
ea
02
04
01
01
ff
02
fe
00
ff
02
24
23
10
00
04
ed
f6
d2
e3
f4
e4
e2
05
f5
ea
e2
f6
de
d9
d6
ed
ea
e7
dc
cd
da
ff
00
1e
1f
21
fe
05
f3
01
fd
03
f5
fa
09
1c
14
ff
f5
12
fd
03
ef
f1
04
07
0c
e8
dd
ff
01
1b
07
12
13
05
10
0b
02
01
03
08
0a
08
0b
08
f9
0a
03
0c
05
ff
00
ff
f6
e6
ee
01
1b
fa
09
02
04
f4
ff
07
02
01
09
0b
04
04
05
0b
f8
07
01
f9
03
05
ff
fd
f4
03
f5
04
f2
f7
00
f6
07
fc
ff
01
05
06
04
fe
00
06
ff
02
f6
fb
f4
f5
fa
fc
03
fb
fe
0e
d5
01
fb
1d
fd
f0
05
04
0a
04
07
09
06
04
06
0b
ff
fb
ff
f9
f9
ff
00
04
09
ff
05
0a
ec
e2
07
f7
f2
fa
09
08
04
fe
05
07
03
00
fe
01
f8
fb
f9
f9
04
05
03
05
08
05
00
fd
f6
ff
15
eb
f7
05
03
05
09
04
03
01
00
02
02
fd
f6
f9
00
04
05
fc
f8
fa
f8
01
01
01
02
15
13
fe
e5
fc
00
07
00
ff
05
04
02
01
09
f6
f6
fc
01
05
fd
fa
fa
f4
f5
ff
06
07
01
12
ea
f5
f0
fd
02
05
f4
fa
02
08
07
00
00
f9
f8
f9
f8
fd
fb
fe
f7
f4
fe
fc
00
06
f9
fb
d9
fd
09
12
08
07
06
02
fc
fd
fa
fe
00
fd
fc
08
ff
02
06
07
02
f9
01
06
03
ed
ee
01
e8
f8
f8
0f
10
11
08
00
fd
f9
01
03
fd
fb
00
0c
fe
ff
04
0b
04
f9
fe
02
fc
01
28
00
1a
02
01
fa
11
10
fe
fb
05
06
05
04
f8
fe
02
06
07
05
07
03
fe
fc
03
fd
f3
06
e2
fd
11
10
ff
ee
06
0b
04
09
0c
08
04
02
02
03
02
0b
10
05
02
fc
fc
02
03
07
eb
e1
d3
fe
ed
f3
e1
e1
02
f8
f7
09
13
08
0c
11
13
0b
0d
0d
07
04
fd
f7
f6
0d
0e
0f
f6
eb
df
fc
eb
d6
c9
df
f5
e4
f1
00
0a
09
0c
0a
07
09
07
01
ff
f9
f6
04
06
03
07
0f
fb
0e
fd
fe
04
eb
af
cd
eb
e5
e8
f4
04
0f
09
01
04
04
00
f8
fc
f8
02
0c
10
0c
01
06
fc
17
15
ec
06
ce
a8
be
e9
dc
e3
ea
f9
0d
0e
0a
01
07
0a
01
01
02
04
0e
18
0c
fa
05
14
1a
fe
02
ea
d5
ae
b7
dc
d6
e6
e9
e9
03
0c
14
07
0e
0f
05
0c
06
05
0d
10
0d
01
08
09
ec
ef
01
0d
f2
d1
ca
d3
dd
e2
da
e2
01
0c
0a
0a
0f
15
07
0f
08
08
07
02
05
ff
06
ff
fa
05
ff
25
0e
d8
ba
b5
cc
dd
d8
e5
fe
08
0b
0c
0d
18
10
16
0f
0b
09
04
10
0d
0a
fc
13
19
11
20
ef
be
b5
b0
bc
c1
cb
d4
f1
f7
fa
01
14
1a
1d
22
17
0f
09
02
fc
ff
fd
ff
fa
f1
04
00
e6
df
d1
d1
c3
b4
af
bc
d7
e8
ee
fb
1a
1a
1a
1a
12
0f
10
09
fe
07
ff
ea
cf
cb
ff
02
0d
11
fb
e9
d1
c0
aa
a6
cd
db
f1
02
14
13
1c
11
02
09
03
f8
01
07
fd
e4
d7
f2
02
fe
2d
22
0d
07
f4
e2
bd
b2
e0
fa
f0
04
17
0f
13
08
fe
04
fd
fd
09
18
f3
e0
ea
1c
ff
ff
0a
f6
05
03
01
fa
f1
cb
ea
0d
eb
f9
0b
13
f7
ee
f8
fe
eb
ed
f8
06
e3
d6
f2
ff
fe
02
01
fe
fd
ff
04
01
00
0c
0b
01
00
1e
ff
1a
19
12
07
14
ff
01
02
ff
ff
02
00
fe
00
fe
00
02
ff
f4
ee
ee
f2
ee
f0
f3
02
01
02
03
1b
19
25
1d
07
09
0b
11
15
14
17
14
fe
01
f8
e0
00
e2
e2
02
ee
e7
01
04
12
0b
1e
0b
0f
28
2d
27
09
fa
0f
07
09
ea
01
28
ff
02
2a
22
18
0d
0b
0d
08
fc
04
fc
0a
0b
0b
18
12
07
02
14
05
0f
10
f6
fd
10
f8
14
ff
fe
2b
1b
00
f7
01
0c
0c
04
0b
0a
10
0a
10
0e
09
09
04
06
09
09
0e
fb
ed
fe
f3
14
15
39
15
0c
07
12
13
07
0b
0e
0a
12
15
0c
08
11
0c
08
0e
11
07
09
0f
07
f0
f5
04
0b
ff
2a
ea
f2
07
08
0e
0a
0b
04
02
10
14
11
09
0e
0c
0d
02
03
03
04
04
0d
04
fc
ff
07
07
1f
03
0a
0b
05
05
11
16
0e
01
0c
06
08
04
08
12
12
0c
ff
f8
fe
fd
05
0b
06
06
ff
e9
01
f6
01
05
ff
ff
10
14
06
03
04
ff
fb
07
06
0b
00
fd
f8
fc
f2
f3
fe
09
fb
02
0f
ee
03
e4
fe
fd
ff
ff
09
09
0c
09
04
04
08
14
08
05
0a
02
fc
fe
fd
fb
09
0a
fd
ff
21
e3
00
06
05
fa
14
0f
0e
10
0e
11
0b
1a
1a
1c
16
1a
19
12
0b
10
10
0f
11
11
1b
11
0e
0d
d6
10
09
f9
11
0c
0a
16
11
14
13
20
20
15
0e
13
1d
1f
1b
17
14
0e
14
0f
0f
03
ee
1b
e1
22
0e
01
15
08
0e
15
11
10
11
16
1a
12
16
19
1d
1c
1e
22
1b
1b
18
0c
f2
e8
eb
fc
e7
22
f5
fb
0e
07
07
0c
08
0b
0e
13
15
0d
0f
12
22
28
28
24
28
22
14
0b
f5
ed
18
fd
fb
02
f4
f6
0a
00
02
06
00
0a
14
10
10
08
0e
0e
14
1a
25
1a
1c
19
15
1a
04
06
fe
fe
e4
ec
ee
e7
f8
ff
fd
01
fc
01
08
03
fb
ff
fc
f5
f5
fc
09
0f
03
f9
f6
0b
05
08
d5
fc
df
e1
ee
f3
fb
04
04
02
fa
f1
f5
f1
e7
ec
e3
dc
d7
de
e4
f8
f4
f1
ef
03
fd
09
e6
fe
fa
fe
fb
f7
f5
f5
f2
f0
ee
ef
e2
e5
e6
e2
e1
d9
db
dd
dc
e6
f0
fd
ff
06
06
17
2d
00
2b
ff
f8
f1
f0
f2
f1
ee
e8
ed
e6
e1
e7
e6
e7
e6
e6
e4
e5
eb
f8
fe
00
03
09
0c
1b
09
2e
ff
f4
eb
f1
f2
f5
f9
f8
f6
f8
f6
f5
ef
ec
f4
f7
f0
f4
f6
fc
ff
00
02
10
17
fa
00
20
06
f7
f2
f8
f5
f8
fb
01
fa
fb
fa
f0
f7
f2
f2
03
f9
fb
08
04
fa
00
0a
0e
2a
1d
fe
21
f0
ec
02
02
01
04
02
07
02
fd
fb
f8
f9
f6
f4
fb
fa
f6
fa
fa
f5
fb
f7
02
1a
3a
00
00
dc
f4
0b
0c
0a
fe
f6
01
fe
00
fb
f3
f8
f1
fd
fd
f9
fb
fc
fc
03
04
f1
f5
fe
1c
e3
ff
e1
f3
06
11
0c
fb
f8
ff
fe
f8
fc
fc
fa
fc
ff
fa
f9
00
fe
f6
f9
f9
ef
ee
f4
1c
e3
02
f5
04
fd
fd
01
fd
09
01
03
01
ff
fb
fa
fb
f7
f5
f8
f7
f5
ed
fa
f9
f9
fb
0c
20
fe
01
f9
09
fe
f3
ee
ee
04
f0
f1
f8
f8
f3
fb
f7
01
f6
f5
f5
f6
00
02
05
f9
ee
03
f9
00
02
eb
04
04
f8
01
fd
fa
e4
f2
f7
f7
f8
fc
03
00
eb
f7
fb
f5
02
ef
f1
e9
ef
0e
f6
01
02
17
fc
ef
f6
0f
0d
08
f8
d7
fc
1f
0c
20
08
eb
ea
05
f5
e4
c9
c8
cb
b6
d2
f5
fd
ff
ff
15
17
18
21
0e
00
01
14
fa
02
ff
18
00
f2
f3
f1
f7
f0
02
fe
fe
fe
00
fe
00
fe
00
02
00
ff
00
0d
17
16
16
15
14
11
01
ff
01
fe
f9
ff
0c
db
f0
ec
f4
ef
e8
e9
e9
e9
02
ff
e8
0b
f4
f8
e7
d8
e7
00
16
fd
ee
e7
f7
fa
f4
f2
ea
01
0f
10
ed
1b
eb
0f
10
06
01
ff
ee
06
f3
f8
ef
f6
e9
00
1f
0e
f8
ff
f9
09
11
05
fb
15
16
12
10
0f
10
04
0d
19
fe
f9
25
12
00
08
fd
fa
07
fe
12
17
0b
09
05
0b
03
07
08
09
05
03
10
07
fc
f9
1b
1a
02
e3
13
e4
f1
09
f4
04
11
fc
11
13
10
10
0b
05
06
12
09
0a
05
f3
f6
05
06
fd
02
21
19
09
09
ec
08
07
f9
06
09
00
01
12
1e
0d
ff
0f
11
18
14
0f
07
07
03
09
0d
fa
0d
26
21
01
e7
f8
f8
fe
f9
fd
ff
fd
fe
0c
16
13
0a
18
19
13
06
0c
0e
10
07
0c
09
02
0f
0b
1d
0e
23
10
ea
fd
f4
05
fd
ff
01
00
0d
10
0c
19
21
1d
11
13
0a
08
04
fc
f8
05
01
02
06
0e
26
0f
eb
02
fd
08
f8
f4
f1
ef
f7
06
0a
19
1b
17
11
13
0a
02
03
02
fd
10
f4
e1
05
ea
0b
05
da
ea
e7
e7
d4
ef
eb
e6
eb
fd
12
1a
18
19
0d
0d
0a
01
02
08
fb
07
ea
08
fd
0c
04
c6
cc
e6
df
d6
d9
e9
e7
e6
d8
ec
00
13
11
10
11
06
06
05
06
08
ff
fb
ea
16
fe
1d
cd
b3
d3
e3
e1
da
e1
e8
ee
e9
e0
e2
f0
0a
09
0f
11
07
06
06
09
08
04
ff
fb
f9
fd
1c
ec
cb
dd
ea
ed
f0
f2
f0
f5
f0
f0
ec
fc
fd
06
0e
0e
0e
10
13
06
09
fc
f5
08
e8
fb
06
f3
df
f9
ff
01
06
00
fd
fc
f5
e7
e9
ef
f6
07
10
16
0c
15
10
0a
06
01
07
1f
14
fd
f2
d9
fd
0c
04
02
04
fd
f8
ff
f9
ee
ee
ef
f8
03
10
11
0d
18
10
0c
0e
10
14
1b
15
ff
f3
eb
0a
0e
07
04
02
00
fe
fe
fc
ef
ed
ed
f2
03
01
0d
14
1e
12
11
15
0e
10
f8
f5
fe
f3
f5
05
0f
0c
0f
02
fd
fc
fb
f7
ed
e5
e5
eb
f5
f6
06
09
08
01
08
08
07
09
f5
f7
fe
f4
18
09
0c
10
07
03
00
fc
fa
fd
f5
e8
ea
f7
04
04
0d
ff
fb
ff
01
f5
fb
05
fa
ea
00
f2
22
0b
0a
07
02
03
09
fd
01
02
ff
ef
ec
f1
fe
01
fd
fa
ff
04
06
f5
02
0d
19
19
00
29
1f
01
09
05
02
08
03
fb
f8
fb
f9
f5
ec
eb
f2
fc
f7
f6
fc
fa
fe
f8
06
06
0d
12
00
0b
f1
f8
fd
fe
08
05
fe
00
00
02
04
f9
ff
fd
f8
ff
fd
f4
01
ff
0c
0b
11
04
05
ed
01
07
fa
fc
f3
f9
02
06
03
04
03
07
00
ff
fd
fb
f9
fe
fe
fa
f9
03
06
0b
08
ff
ee
d3
e6
ea
0f
fc
f8
f2
f1
ff
fd
fb
f7
ff
ff
06
ff
ff
03
fe
fb
f8
f5
fe
f8
fd
09
f9
f1
c6
e8
ea
07
f6
f8
fa
f8
fa
00
06
f3
f3
fc
01
f6
02
fd
fc
fd
fe
ff
07
fa
02
02
f8
fa
ee
00
e9
18
00
f5
fd
f2
f5
f5
fd
f1
f6
f1
fa
fc
0b
fa
08
fe
03
04
08
f6
f8
f7
eb
14
fc
ff
01
21
08
06
0e
fa
04
18
04
f7
e3
fa
00
00
02
01
02
01
03
f7
f7
f4
fa
f4
03
29
05
ff
00
e6
21
4b
1b
13
17
14
04
0f
e7
ec
09
11
21
2d
07
10
09
16
0c
26
1f
3a
29
28
22
02
02
ea
e7
e6
ec
f2
01
02
e2
f4
fe
ff
ff
01
11
15
11
03
13
ff
01
ff
fe
ff
01
01
02
02
02
02
fe
02
ff
fe
01
ff
fd
00
fe
02
00
ff
ff
fe
fc
ee
fa
02
01
00
01
0a
09
07
04
01
fe
f3
08
ee
fc
f0
0e
0c
07
d8
e0
ea
09
fc
f8
06
0c
0d
07
14
2b
0b
dd
e4
ec
f9
0e
00
00
01
ed
db
0c
00
e1
ed
0b
fd
f9
0b
0b
f6
f2
0e
05
f7
f9
05
15
00
f1
f8
ff
1d
27
01
fe
37
fc
e8
02
06
fd
01
0d
03
00
ff
00
f8
fe
0b
06
02
04
0b
09
f4
f8
07
05
1a
16
1e
f6
1b
ec
01
fa
f3
05
ff
f9
fb
02
fa
fe
06
09
08
ff
01
05
06
07
06
04
0a
11
05
fb
16
17
40
eb
fe
f6
ef
00
fb
fe
f9
fb
f5
f6
02
07
04
fc
07
ff
fe
02
04
08
09
10
ff
02
12
09
07
09
01
fa
f9
fa
f4
fe
ff
ff
f9
f3
f5
fa
fd
02
05
fa
05
06
0a
0c
10
0c
06
ed
e8
13
02
0c
00
03
fe
f6
fb
03
00
05
08
fa
fe
f8
fe
0a
05
fd
0a
05
0b
0e
12
11
12
f3
dd
17
fe
f9
fb
f9
ff
fd
06
03
f7
f9
0b
05
04
ff
04
0e
03
07
0c
0e
10
12
14
22
03
d4
df
0b
f4
ed
0c
06
08
ff
ff
03
05
04
09
fb
f9
fb
ff
0a
09
15
15
0b
0d
14
1d
21
f9
d5
17
01
f3
0c
16
04
07
0a
fd
fd
fe
06
0a
06
01
f9
03
09
02
0d
10
0e
13
1e
22
22
0a
19
1c
fb
1e
0d
0c
00
06
05
02
fc
fe
00
f5
01
ff
fa
00
fb
fd
09
09
11
09
13
0c
fb
f7
0c
01
02
e6
13
f4
fc
04
05
03
fd
fd
f8
f5
fa
fc
f9
fe
01
fd
09
08
12
17
13
fd
dd
dd
e4
ee
13
f4
08
f0
f7
01
04
02
02
ff
03
03
fe
fe
fe
02
0a
05
0f
0d
09
fe
f0
d2
c2
c6
cf
ef
12
e4
02
f5
fb
fa
f7
02
05
fc
04
07
0b
09
07
0b
ff
f6
00
f0
e7
d0
c5
b0
b7
c5
db
ea
16
e3
ea
f9
f7
f0
fb
fe
ff
02
06
08
0b
0a
08
fa
f7
ef
e8
d2
ca
b8
b1
c1
d7
dd
da
ed
16
c6
d3
f7
f2
f5
05
fe
fd
05
03
0b
03
03
f8
ec
e4
df
d8
cd
d3
cd
d7
e7
fe
f9
eb
ee
1f
db
ec
03
00
ff
04
ff
fc
f3
f3
00
fb
fb
f7
e8
e7
ea
ed
f0
fc
fd
02
fc
07
08
1a
03
08
f0
f8
fa
01
00
ff
05
fd
f8
f9
fb
f1
f7
f5
f2
05
06
15
19
1d
1d
1b
05
f2
02
11
02
1c
15
f5
f9
05
01
fa
00
ff
fe
01
fc
fb
ff
0a
0a
10
18
29
25
22
28
1e
15
08
0b
1b
00
13
e6
09
0d
0a
05
fa
fb
ff
04
07
fe
f7
03
0e
15
1c
15
17
10
17
22
20
1c
19
1b
ec
01
1c
d6
fe
06
04
02
fa
f2
f7
f8
00
f4
f1
f7
ff
05
0d
15
0a
11
13
18
11
17
18
27
11
18
f1
f1
f8
fd
07
fd
ff
fc
f9
f7
fc
ef
f4
f7
fb
01
04
09
0e
13
0e
13
10
10
11
0b
eb
fd
e3
f6
00
f7
fa
01
03
fc
f7
fa
f4
ff
fc
f6
ff
fb
fd
06
08
0c
0b
12
0c
1f
14
13
f6
02
e2
dd
f7
f2
ed
f8
04
fc
f5
ff
ff
04
02
01
fc
fb
08
10
0a
05
0b
07
0a
26
0d
fc
f9
ff
00
ef
f5
fd
f7
e1
f3
01
f2
fb
05
0e
09
02
09
01
0c
01
03
0c
02
f8
ee
ff
0a
e3
ef
00
02
e0
ea
e3
fd
06
0c
27
12
fb
0a
1e
0b
01
0b
0f
0b
02
e2
fa
f4
f6
ef
e2
ff
f7
fa
ff
ff
03
08
01
f4
01
01
00
f4
f8
02
fe
fe
fe
00
fd
07
0a
ff
ff
fe
ff
ff
00
01
00
ff
00
01
ff
02
02
0e
12
14
14
12
12
10
02
00
fe
fc
fd
00
13
04
ff
00
fe
ff
02
01
02
fe
ff
02
08
df
fa
0c
22
24
15
15
41
12
0f
03
04
07
ed
d3
da
d3
e6
ff
fc
07
ee
d8
e4
01
02
02
1d
1e
1e
04
1a
28
1a
13
17
17
09
02
02
10
01
ff
f1
df
f4
e9
e3
ea
e8
f2
00
0d
00
00
ff
11
18
fb
03
0c
04
f7
fb
01
00
f9
ef
f7
f3
fd
04
fc
f3
e0
ed
ec
e0
df
06
15
fa
fc
f1
10
10
00
f1
05
ff
03
0a
13
16
08
ff
f8
fd
08
f2
f7
f6
ee
f6
f9
e6
e2
f0
11
fb
ee
ea
04
01
fb
ef
fc
f6
00
06
0c
13
08
09
00
00
01
ed
e8
ec
e8
dc
e4
e0
e2
e2
e7
fd
ee
0e
f5
00
00
f6
fb
f9
fe
05
03
0b
02
0a
0b
0b
fb
ee
e5
ea
e7
de
db
e2
db
c7
c4
ee
07
01
fb
f9
fe
f1
f0
f3
fc
ff
0a
14
06
09
12
0f
00
fb
fb
f0
dd
cd
cc
d8
ca
d3
e1
01
fd
e6
f9
08
09
fa
f5
f5
f5
ff
04
02
05
10
0b
06
06
07
07
e9
da
d5
d2
cb
c8
e2
14
01
e4
f2
13
06
05
fb
fd
fe
f6
f3
fa
01
06
10
08
0f
12
11
04
f6
e1
d2
c5
ae
b7
e2
09
fe
e2
ea
00
f5
f6
04
09
05
ff
f7
f8
f7
f6
05
06
10
1b
22
1b
ff
ef
d8
c3
cc
c5
d3
b8
02
de
e4
fb
04
0b
06
0a
07
00
fe
f7
fa
f8
f9
04
0c
19
21
23
01
f1
ef
de
d0
b8
cc
ca
f3
02
e0
ea
01
02
06
10
06
f8
f5
fc
07
ff
00
06
13
1a
16
13
f3
dd
ec
ef
d6
bb
cb
e6
f1
ff
e7
01
0b
05
02
0d
fc
fb
f5
f1
f7
f6
fa
00
0d
15
15
08
f5
e6
f6
f7
dc
d7
d6
0c
f5
ea
0a
0a
0c
09
05
07
04
03
01
f6
f4
fc
09
06
0b
16
1d
08
ee
e0
f1
f3
ef
f0
f5
11
f9
f3
23
07
1c
0b
08
0e
07
0f
09
fa
fb
03
0c
fd
06
0b
16
ff
ec
de
e8
ef
f8
f3
ef
fd
01
eb
1b
20
20
16
0f
08
07
0e
09
05
07
04
11
03
ff
05
0d
fb
ea
e4
f6
f9
ff
0f
f8
e5
00
00
1c
23
10
12
0b
12
0a
00
05
02
08
03
ff
01
08
08
0a
fd
f9
fe
09
05
09
01
f0
e8
df
eb
e0
05
0c
10
06
05
05
02
04
fd
fd
fb
00
01
02
02
fd
fd
01
10
05
0b
0c
ff
f0
fa
00
e1
ed
04
12
0f
03
05
01
05
03
fc
ee
f6
ff
fe
05
06
06
fd
fc
00
02
01
fc
f6
f4
f9
fe
fc
0a
03
10
0a
00
fe
fa
00
01
02
ff
f6
f4
03
07
08
04
f6
fe
03
07
f6
f6
f6
ed
f9
00
fb
17
06
0c
0c
06
06
02
f7
fe
ff
03
ff
09
08
0a
06
07
01
f8
fb
01
f5
f4
f7
d9
b7
00
00
ff
f3
06
10
02
fd
05
fa
00
fe
fe
f9
02
fd
03
02
02
04
fd
f6
fb
fd
fe
f9
01
03
ff
f3
dc
d8
ff
05
05
02
07
ff
09
0b
04
00
01
ff
f7
f5
f8
f5
02
fb
fe
fe
ef
f8
05
22
01
f2
fc
fb
fc
02
02
fd
04
08
fc
f9
03
06
0c
0c
03
04
05
0b
0b
00
06
fb
df
ed
fe
03
02
ff
e6
f1
ee
f3
e8
df
e8
f2
ec
fe
fc
0b
10
14
0a
06
06
15
07
01
03
08
eb
de
ff
f0
ff
ff
e4
dd
02
08
f4
e4
d9
f1
13
23
1a
ff
f6
fb
09
f1
d4
1c
36
1d
0b
02
0a
f2
e3
d7
ff
00
00
02
08
09
02
02
ff
f1
f6
ff
ff
12
fe
11
15
19
19
14
00
01
00
02
01
00
00
ff
02
02
fe
fe
00
fc
f9
f8
fc
fc
f8
fc
ff
00
00
f2
e3
e8
0a
f8
f5
f1
f9
f5
f2
f0
ef
f5
01
ff
15
09
19
f7
f5
0d
fd
f6
ef
ff
f7
f6
07
0b
2d
34
13
09
19
0f
f0
25
eb
e0
ff
08
02
02
07
2b
14
1c
13
1a
0c
0a
00
f6
fb
f0
f9
f9
06
06
f1
03
00
0e
fa
ff
04
07
0d
00
02
fe
17
3c
12
fc
fe
09
00
f9
f2
fd
f8
f5
fa
00
f3
ff
ed
f1
ea
f9
ff
fc
02
fd
07
18
12
ff
1f
11
fd
ee
fc
fd
f3
f5
f8
ff
fa
fd
01
fd
f5
fd
f8
f7
f4
fb
fa
02
00
01
09
19
02
fb
04
04
00
f5
f5
f0
f7
00
fd
f6
01
f7
f9
fb
fb
f7
f8
f3
f3
f8
ff
05
05
01
0d
06
17
06
dc
ee
fb
fd
ef
f4
fa
06
08
07
05
04
09
02
04
f9
fd
f6
f6
07
0a
10
0d
09
12
fc
f4
0a
e9
eb
f7
fa
f3
f4
fd
01
0b
07
08
0c
11
07
06
00
00
fc
06
10
14
09
0c
0b
11
fc
cf
0a
01
fc
ee
f1
f6
f4
fc
03
0f
0b
11
16
0d
04
03
04
01
04
0b
08
12
04
06
03
03
ec
d5
02
03
ff
f0
fe
f7
f5
f8
08
07
0e
0c
0d
0a
fb
fc
f8
05
0d
06
00
04
fc
fe
04
ed
fd
1c
e8
21
0c
fe
0d
02
05
06
07
fc
0a
05
fe
fc
fb
fd
fe
05
04
f8
f2
ed
ea
e7
f3
f9
39
25
e4
47
fe
fa
09
0f
0e
15
0c
07
0c
f9
fa
f4
05
03
05
04
02
f5
eb
ed
ec
ef
f3
03
32
13
f1
26
f6
fc
0c
0f
1c
18
12
11
0a
f7
f0
fa
08
f9
fd
04
06
f5
fc
f8
f6
f6
fc
0e
33
21
1e
28
fd
01
0f
0f
19
14
14
14
16
01
00
06
05
f5
f5
fa
fb
ef
f9
f3
f0
fa
fb
17
04
0c
28
06
00
ff
0c
0c
0a
0e
09
0f
1a
10
0b
02
fe
f2
fb
fc
fd
f8
f8
f3
f7
f7
f6
12
11
09
35
e1
ee
f7
06
00
03
06
08
12
17
10
0b
04
02
fa
fe
05
0d
0d
09
07
09
06
04
fd
0b
19
2c
01
ec
f4
ff
f9
04
06
0f
16
11
13
0f
fe
f8
03
fd
0a
14
17
15
1c
19
0e
08
f5
fc
17
12
f1
f1
01
fb
f8
f9
fd
ff
08
0f
08
01
07
02
01
00
10
16
17
1c
1a
1a
0c
0f
0a
e7
20
fd
ee
fd
02
fa
01
09
07
01
03
0b
ff
05
00
00
f6
ff
0a
0d
13
0f
11
13
08
0a
03
e1
00
ec
fe
07
01
fd
00
0a
fe
02
03
fc
00
f5
fd
fa
f5
fd
02
01
0d
08
ff
0c
16
12
09
f7
00
f5
03
fc
05
fe
07
04
fe
06
08
03
f3
ee
f9
f6
f0
fe
fc
f8
00
f8
f1
fc
07
0c
0e
e0
fe
f8
19
11
04
04
0d
03
03
0a
09
00
f7
f8
03
01
fd
f8
f4
f2
fb
f8
f6
f6
fe
09
0e
e9
19
09
1b
0a
05
08
06
07
00
04
02
ff
fd
fd
01
05
ff
f8
f4
fc
fb
fa
f7
fd
f3
00
0a
e9
f9
e7
23
1c
07
03
fe
04
0e
08
01
02
07
05
fe
04
04
05
fb
fe
03
01
fb
f7
f7
eb
ed
d7
02
e6
0f
04
fb
0d
0b
0f
0c
04
00
0e
0a
15
0f
04
fc
fe
07
f7
fe
f4
f2
f2
f8
e3
e1
fd
00
ff
12
fb
08
14
0b
1d
21
17
fd
0f
10
0c
06
03
09
01
02
fa
f1
f1
01
ef
f5
e6
ec
02
00
ff
13
14
20
17
0a
22
34
1c
fc
0c
0a
06
0f
01
fd
f4
fe
ea
c4
cd
d7
c7
d7
0e
19
37
00
01
f2
ef
f9
02
f8
02
02
dd
dc
02
fe
1c
00
ed
fa
fb
f9
f8
fe
01
00
02
01
01
01
01
01
02
00
02
fe
f1
eb
e9
ec
ec
ec
ed
ff
00
00
ef
e8
f3
f2
17
f8
fb
00
00
fa
fb
f9
f6
00
01
09
f2
05
18
fe
0f
10
10
e7
06
05
06
02
02
10
f7
f0
d4
e3
d2
d7
df
e3
f6
06
0d
ff
00
ec
dc
e5
04
10
0e
05
02
f3
0f
23
10
0b
02
03
fa
f9
09
10
01
f9
e6
df
e5
fb
02
ff
ed
f1
01
ec
ea
f3
fa
f9
05
0d
13
16
15
03
ff
10
0c
fd
ff
08
07
fb
ef
ee
fc
07
0c
05
da
07
fd
e4
e6
f9
f9
ee
f5
0f
14
10
0a
fc
03
09
08
fd
fb
01
07
02
fe
fa
09
0c
ff
f4
09
12
06
e9
e5
f4
fb
f2
f6
0d
14
0f
07
ff
fb
fd
00
04
04
05
08
0a
fe
f5
00
13
16
04
0f
e5
e8
f6
fb
04
fb
ef
f0
04
0b
09
05
05
03
f8
fe
01
04
0a
00
02
08
06
fa
03
1a
1c
0e
f2
e0
e0
f0
fb
00
fb
fa
02
03
08
17
1a
15
04
09
03
fd
02
04
04
0a
0f
0a
fd
f4
f0
07
01
d8
d6
e8
f7
f3
fd
fe
fb
fc
02
0a
17
0d
07
11
09
03
ff
05
0a
06
0d
0c
e8
c3
e9
13
fa
e4
eb
f0
f4
f6
00
f9
f2
f5
f0
f7
0c
03
f8
05
10
03
f8
fe
05
00
01
fe
e4
b4
11
fe
df
fe
fe
f9
f5
fa
f3
ee
ee
f2
f4
f7
fd
ff
01
0d
08
09
09
0a
09
fd
fd
01
fc
f3
0f
f1
01
0c
05
fa
f7
f6
f9
02
fe
f7
f9
fd
fe
ff
05
0b
0a
12
0e
0f
06
14
0f
0c
fd
0b
14
fa
ef
12
0f
ff
f8
00
04
01
fd
fb
fa
01
fd
01
06
0b
08
12
0b
06
0d
15
12
12
00
f2
20
e8
1d
19
14
07
06
0a
0c
08
f7
ef
f7
fd
01
09
0b
0e
14
12
05
fe
01
0b
11
0c
fd
f3
10
25
17
24
1f
14
07
0e
10
03
f9
f1
fe
08
06
0d
0e
18
15
0c
00
fe
0a
13
14
17
0e
f9
0d
32
13
19
19
16
02
01
01
f7
fb
ef
f7
08
06
08
08
14
05
04
fc
06
08
10
19
28
19
fe
1b
1f
04
0f
0d
09
00
01
fb
eb
e8
ed
f9
09
0c
10
13
0a
fa
f6
fb
0c
0b
14
10
17
02
ef
15
07
ec
04
06
f6
f1
e8
ee
ed
ec
f2
f5
03
0f
06
0b
00
f9
f8
01
0b
ff
0c
06
09
fb
eb
fc
ef
fb
02
f2
e2
dc
e4
e1
e9
eb
f4
ed
f9
fe
fc
00
00
02
03
06
03
fb
ff
fa
fb
ff
ea
02
1b
02
e6
da
da
da
e8
ed
f0
ef
fe
04
07
fd
03
05
fd
f7
01
03
02
fb
06
00
fc
01
0d
02
ea
d9
d3
d1
db
e3
f1
01
eb
f4
05
09
ff
04
ff
04
fe
fa
fe
fe
ff
00
0c
06
01
04
09
01
ef
d6
e6
ea
ea
f2
f8
f5
e5
f8
09
0d
07
09
02
01
fe
f8
00
04
f7
fb
02
ff
f6
07
1d
17
e7
f1
13
f7
f9
fa
fb
f0
ef
07
10
0f
06
04
fd
f9
f8
ef
04
02
f8
ff
00
00
f3
ed
fc
18
ea
d5
12
f8
f4
fd
ef
e0
ed
05
03
06
f9
00
fd
ff
f9
f0
01
ff
fe
02
f8
f9
ed
e5
e7
00
eb
fb
0e
ff
fd
06
ff
fd
f6
05
0d
f7
f2
fb
00
fa
f3
fa
0d
0e
0e
0f
0d
0c
05
f7
29
ff
fd
09
10
21
08
fd
09
05
fb
00
ff
05
fa
00
fc
f6
f1
fa
0d
0c
09
19
11
0f
0e
e2
01
fe
fe
00
00
08
f1
ed
f8
eb
f8
0b
f5
f2
f4
f4
e6
f1
fc
15
f4
d9
d7
dd
f5
fc
27
f1
df
02
01
f8
fb
f4
ef
00
fe
02
1b
17
01
ff
e7
00
e3
e9
e8
e7
ed
02
fe
ff
00
fe
ff
fe
fe
00
fe
02
00
fe
02
01
01
00
01
fe
fe
ff
ff
fe
fe
fe
02
ff
00
fe
fe
ff
00
ff
fe
02
02
02
01
00
00
fd
ff
00
01
02
02
ff
ff
00
02
fe
ff
01
00
00
fd
fd
01
ff
01
ff
ff
ff
ff
ff
ff
02
fe
02
fe
fe
02
02
01
fe
fe
00
fe
fd
fe
ff
02
02
ff
ff
fe
ff
00
fe
ff
02
ff
ff
03
fe
fe
fe
01
02
fe
00
00
02
ff
01
ff
fe
00
01
00
fd
fd
02
fe
fe
fe
02
02
01
02
02
00
ff
02
00
fe
fe
02
ff
ff
02
fe
02
ff
fe
02
fe
ff
01
fe
ff
01
fe
01
ff
fd
ff
fe
01
02
00
ff
ff
00
00
fd
00
01
fe
00
02
00
00
00
fe
02
01
01
fd
02
fe
00
01
fe
00
ff
fe
02
00
00
00
fd
02
00
01
fe
fd
00
fe
01
00
01
fd
02
fe
ff
01
01
01
02
01
ff
00
02
fe
ff
00
fe
fd
01
02
fd
02
ff
ff
01
01
02
02
01
fe
fe
fe
01
00
00
ff
01
01
fd
fe
01
01
01
00
01
fd
02
02
ff
fd
ff
02
fe
00
ff
00
ff
00
01
ff
00
02
ff
ff
00
02
ff
fe
02
ff
00
02
ff
fd
ff
fe
fe
01
fe
fd
02
01
ff
ff
fe
fd
ff
01
01
fe
fe
fd
00
ff
00
02
fe
01
ff
ff
ff
01
00
fe
ff
ff
fd
ff
fd
fe
ff
ff
ff
01
01
00
fe
ff
00
01
00
ff
01
01
ff
01
01
ff
00
00
ff
00
fe
ff
00
fe
fe
fd
ff
fe
ff
fe
fe
02
02
fe
01
fe
00
00
00
00
ff
ff
02
fe
ff
fe
fd
fe
fe
00
01
00
00
01
ff
02
00
fe
ff
02
00
ff
fd
02
00
00
fe
01
00
ff
fe
ff
01
00
fd
00
00
00
fe
ff
01
fe
00
ff
00
ff
fe
fe
01
fe
ff
ff
01
02
fe
fe
02
fe
01
01
fd
02
01
00
01
fe
00
01
ff
fe
02
fe
ff
ff
01
01
fe
fe
fe
02
fe
ff
02
fe
fe
fe
00
fd
fe
02
02
fe
ff
ff
fe
01
fe
ff
fe
fe
01
01
fe
fd
fe
01
fe
00
00
ff
02
01
ff
fe
ff
00
01
02
ff
00
ff
01
fe
00
01
00
01
02
fe
00
ff
fe
01
ff
02
01
ff
01
fd
00
01
01
02
00
ff
ff
01
01
ff
00
fd
fd
fe
ff
ff
ff
fe
ff
00
00
ff
01
ff
fe
fd
fd
00
01
02
ff
02
02
01
ff
01
00
01
00
fe
ff
fe
01
00
ff
ff
02
ff
fd
fe
02
02
01
01
fe
fe
fe
01
01
00
02
fe
00
fe
01
fe
fe
00
fe
01
ff
00
00
fe
02
fd
ff
fd
01
fe
ff
fe
00
fe
00
fe
ff
01
00
01
ff
ff
01
01
fe
00
00
ff
00
ff
01
ff
ff
fe
02
00
fd
fe
fe
02
fd
02
ff
fd
01
00
ff
00
fe
ff
00
01
01
ff
02
fd
fe
02
ff
ff
00
01
fd
01
ff
00
ff
ff
fe
fe
00
01
02
01
00
ff
02
02
fe
fd
ff
01
fe
fe
fe
01
01
ff
fe
00
00
ff
ff
00
ff
fd
fe
01
01
ff
00
fe
fd
fe
fe
01
01
01
00
ff
00
01
00
fe
fe
ff
00
00
00
ff
01
00
fe
02
01
fd
fe
ff
01
00
02
00
01
00
ff
00
fe
fd
02
00
ff
02
00
01
fe
00
ff
fe
ff
01
00
00
fe
00
fe
ff
ff
00
ff
fd
00
01
fe
fd
02
00
02
ff
02
02
ff
00
00
01
fd
01
ff
00
01
01
01
fd
01
02
02
01
fe
ff
ff
00
fd
02
fe
ff
fe
fe
ff
02
ff
00
ff
02
02
01
ff
00
ff
02
02
fe
01
fe
02
ff
01
02
ff
ff
01
ff
ff
02
00
ff
fe
00
02
00
00
01
02
00
ff
02
01
01
02
01
fe
ff
01
00
02
ff
01
fe
fe
fe
01
01
ff
fe
01
fe
02
fe
e6
e8
e4
e7
00
00
fc
f7
01
01
fe
02
00
00
f5
07
0a
e8
06
17
0e
10
0a
ef
fd
fd
e1
f5
eb
ed
eb
00
f8
f1
1d
15
fc
15
00
e5
01
02
10
e8
e2
e2
0d
0d
ff
03
00
f8
08
00
f6
f0
01
f6
f0
e8
ed
e4
e6
dd
e3
f2
07
d8
00
01
30
10
f5
02
1f
0d
10
10
11
0d
0a
09
0e
09
0d
fb
f5
f9
f6
f0
ee
ed
f0
c9
da
e6
04
00
30
fe
f7
f7
08
f3
ee
fa
02
02
08
08
0c
0e
0b
f9
f2
ff
f9
f0
f8
fe
fc
ee
e6
ee
01
fe
dc
df
00
01
04
0a
00
03
0e
0e
0d
10
0d
07
0e
03
fa
f7
f8
fa
f8
f7
f1
f1
d9
d6
0a
fa
ce
f0
02
03
09
06
08
04
0f
0b
05
0b
13
13
0f
04
02
f8
fc
02
fa
f5
fc
f4
e0
e9
0b
f7
d8
f4
f8
00
01
03
09
03
02
09
04
06
15
14
15
04
08
06
06
fe
fc
00
05
06
ed
de
e7
f9
f1
ef
fb
fe
02
fa
01
01
fc
03
01
06
15
10
10
08
fe
00
04
05
fc
01
ff
09
0a
23
e4
ee
eb
e9
f2
fd
00
f7
f1
f3
f1
fa
ff
0b
12
10
10
06
fb
f5
00
03
08
04
04
08
29
1b
18
f1
1e
ea
ef
fb
fe
01
f5
f9
fb
03
03
0c
01
fa
f6
ec
f2
f7
f3
f9
02
02
0a
09
1d
30
1b
f6
14
f2
00
01
01
fb
f5
f4
02
07
0b
06
f3
e9
da
d2
dd
f4
f6
fd
02
01
12
0f
18
19
00
f1
f8
ed
05
09
07
01
03
fc
09
0d
10
0f
04
f2
d2
d3
ee
f6
fd
ff
0a
02
0f
09
17
0d
fb
f6
fe
d5
fa
06
0a
06
0e
03
0b
06
0f
0e
12
da
9f
c6
f3
02
05
00
06
ff
03
0a
12
29
f7
f7
eb
d9
f4
01
06
0b
10
07
02
00
0b
0c
0c
bc
95
d2
03
0f
09
fd
01
02
00
07
08
33
f6
ff
fb
e6
f8
f8
00
0a
0e
0b
09
08
06
12
f8
99
97
e4
15
18
01
06
fd
00
05
fe
16
3a
fa
00
e5
e9
fe
ff
08
09
11
17
11
0f
0b
06
e5
9f
b6
f2
06
0d
fc
fe
f8
02
02
00
18
35
f9
fe
f8
de
f8
0c
0f
07
0a
10
14
05
05
f9
dd
ca
e2
fa
fc
04
f6
f5
fc
05
05
f8
14
22
f4
f1
ed
d8
ed
06
07
ff
00
0e
0d
02
fc
ee
db
dc
e5
fa
05
00
ef
f3
fe
fe
fb
f3
1b
04
ff
ed
f0
d1
ee
06
09
08
04
09
03
fe
f4
f2
e8
f0
f3
fa
f9
fb
fa
fb
fc
fb
f8
08
34
f1
02
f8
eb
e4
fb
05
06
04
04
07
fd
f9
f6
fc
fc
fe
fe
ef
ee
f6
f8
f2
f9
ed
ef
0d
1b
0b
02
01
ef
f0
f9
04
00
fb
01
07
00
03
05
ff
03
fd
f8
f0
f2
ee
f9
f3
e9
e5
f0
0d
fd
dd
fc
02
f9
fb
03
08
08
fb
00
08
03
08
0b
01
fe
f9
fc
f7
fb
01
fd
f8
f7
fc
f4
0b
de
b5
ff
fe
f7
ea
01
fa
09
05
fd
00
02
01
08
03
03
07
06
03
06
03
f0
ed
00
ee
e4
f0
d3
ec
ff
02
17
1a
0e
02
0c
f9
01
10
08
07
02
00
f9
00
02
0c
10
00
f3
f6
0d
f7
f1
f7
06
01
00
01
fb
0d
15
0d
00
f9
f0
07
09
1c
11
fe
ec
fc
03
03
07
f2
dd
e3
f6
d9
d4
f3
0a
f2
00
fe
e5
fc
f8
ed
f1
06
21
13
09
0f
2a
11
fb
f5
fe
f9
f1
d2
df
fe
d9
cb
d9
0d
1a
1a
ff
01
ff
00
00
fe
f4
00
ff
e5
e6
ff
fe
02
02
02
fe
ff
fe
01
02
ff
fe
00
01
02
02
ff
00
ff
00
ff
fe
fd
ff
00
fd
fd
fd
ff
02
ff
00
02
13
1a
ec
27
f6
f0
06
05
16
13
16
10
02
00
ff
1f
21
1f
f2
fc
ef
f7
f4
e3
f6
e3
d6
07
01
34
15
2f
23
34
22
04
36
00
d7
f7
00
01
f0
fe
0b
ef
f3
0c
f7
e7
ce
d1
ba
97
c7
f1
f1
07
0a
1f
26
29
20
19
0b
01
ed
e3
00
eb
e8
e7
02
f7
f7
ea
d7
bf
b0
c7
bd
c1
de
ec
f4
0c
1c
18
17
11
12
12
0d
04
ed
df
06
dc
fa
ed
ee
f8
04
e6
cb
b4
b6
c9
e4
f0
ef
fc
04
11
0d
08
14
0c
0c
10
08
03
f8
e7
12
ed
0a
04
f2
ef
ef
e1
c4
a8
bb
e3
fa
fd
fc
04
0e
0f
01
0a
11
07
0e
12
13
0e
08
00
eb
f8
0f
14
0c
f5
e6
d0
af
bc
e1
f8
04
05
ff
09
0a
0e
09
0a
0c
06
09
09
07
13
17
1c
f8
ed
2c
17
f1
d7
bd
c1
b3
dc
fd
0d
08
08
08
09
03
0a
07
08
11
0a
08
02
07
15
09
15
da
e2
19
08
dc
bc
af
bb
ca
ea
05
06
04
0c
04
05
15
0f
04
06
0c
06
00
06
02
0c
fd
16
dc
f7
f2
e9
bc
9d
af
d0
e2
ee
fa
03
0d
14
0f
0c
14
0c
ff
00
fb
f8
fe
03
0b
13
0b
11
e9
ef
d6
cb
9d
9b
c1
e8
ef
fb
fd
0f
1a
13
13
0d
0b
fe
01
03
fa
f9
06
fd
06
0e
fb
e5
f9
f5
c9
d6
bd
d6
f2
ff
fd
02
ff
10
0f
09
0f
0c
03
fa
03
01
00
fe
0f
01
02
10
0b
e2
eb
04
e2
c5
cb
ef
03
0a
06
05
01
11
08
ff
ff
ff
f7
fa
08
06
05
0a
09
fd
fc
f5
f7
fd
dd
ee
c4
d9
f0
fc
fa
03
07
08
03
16
0f
04
f6
fc
06
02
15
0d
03
01
0b
fc
02
fa
f8
10
e4
2b
ea
e5
08
01
f8
fd
08
07
04
0c
0b
ff
f6
fb
fe
05
0f
0a
04
02
ff
ff
04
01
f3
fd
e3
23
0e
f5
11
0d
ff
f9
ff
fa
f6
00
ff
00
ff
fa
04
09
09
06
02
01
f6
fe
02
f6
09
29
e4
1e
00
fa
04
0e
01
fc
ff
f6
fe
03
03
02
02
00
03
0d
07
05
0c
08
05
08
02
03
15
3b
e2
fa
01
f7
03
09
08
09
06
fa
fb
03
fe
f9
fb
fc
ff
0c
08
00
08
02
07
06
05
04
f9
36
f7
fd
09
fd
05
08
06
03
03
fc
fa
f9
fc
01
02
fe
fb
11
0e
04
05
09
0b
0c
13
0e
00
2d
02
16
21
fd
0a
07
ff
fb
01
02
fe
f3
f7
fd
01
03
0c
10
08
06
04
06
0b
05
0b
04
14
12
00
06
07
01
05
f8
f4
fd
fe
05
ff
fa
fa
01
fe
fc
05
03
04
fe
02
06
10
03
05
03
05
e9
fe
21
fc
f1
0a
07
00
01
f7
fc
f9
fa
02
06
07
fe
fb
fc
ff
fa
ff
fc
01
f6
0d
01
f2
10
1a
1f
e0
fa
08
08
05
04
fd
02
fd
01
05
04
fc
01
fe
fe
f5
f9
fe
f8
02
00
03
fb
0b
2d
02
14
0e
07
10
fc
fe
05
fd
fe
f7
05
08
04
fc
f9
00
05
05
0d
08
0b
14
15
0b
0a
2f
4d
00
16
10
09
07
f5
fe
ef
f0
ff
fd
fd
09
0d
01
f9
f7
f7
fd
fd
fb
fb
01
f9
00
20
33
46
00
fe
fa
06
04
eb
fb
04
03
0a
f3
e3
ea
0a
f7
ec
f6
07
f7
f7
fe
01
f6
03
10
26
26
23
00
02
ef
02
16
02
0b
f5
e9
00
fc
f4
10
06
f8
e8
db
ea
dd
df
13
05
f6
0e
30
39
11
00
fe
fe
0f
14
fc
f1
06
fe
02
2e
22
02
fe
02
02
02
00
0c
14
00
00
02
00
00
ff
fe
ff
01
fe
01
00
01
00
00
fc
00
fd
01
fc
00
00
00
fe
ef
ee
ec
f6
f5
e5
e4
f8
f5
f9
fa
f8
fa
01
00
18
04
10
2e
0d
f6
de
f5
f4
13
0d
07
fb
fa
10
18
0c
f3
eb
e2
dc
07
06
00
dc
eb
00
02
02
07
f7
05
fc
06
f1
01
d9
ec
fd
00
ff
04
06
16
04
04
03
00
10
17
17
0f
00
ea
00
ea
f3
fd
ed
e2
e5
ef
f7
f3
e0
f4
fd
04
08
f9
f2
03
ff
fa
fe
fc
06
03
fe
ff
fe
fa
05
dd
01
f5
e2
dd
f0
ef
f8
f7
ee
fe
f6
fe
ff
f9
f4
02
f7
ef
ff
04
0a
06
f9
fd
ed
de
09
e4
06
0b
e8
e4
f6
f9
fc
f7
f7
02
fa
ff
fc
fc
f6
01
f5
f5
00
09
0a
05
f6
f7
ed
ec
17
dc
07
0d
ff
00
01
04
fd
f0
f9
fc
fa
f8
05
00
f9
f9
f8
fd
07
02
fa
f9
fc
fa
fc
0f
1b
ee
01
01
f1
fa
04
06
f4
f4
f5
f5
f7
06
0b
00
01
fb
f5
fd
03
fa
f9
00
0a
0d
06
00
da
ed
ff
05
f9
05
07
ff
fc
f2
fb
02
ff
05
fc
fb
fd
f2
f3
f4
f7
03
ff
f8
f3
02
fb
d2
da
e9
fb
00
fb
08
09
f9
f4
f3
f4
00
f6
ec
f7
ee
f0
f7
f4
ee
fd
05
fc
f8
fb
05
f5
e2
08
e5
c4
f8
07
0a
06
03
fd
f7
f2
f7
ee
f1
ef
e9
e8
f2
ee
f0
fd
08
01
08
03
0f
0b
f4
03
e6
dd
ed
f9
00
0e
0f
07
05
fd
fe
fe
f8
ec
f0
f0
f8
ec
f0
f6
02
00
06
04
09
04
ef
04
fb
fb
fd
f7
05
0c
10
08
fe
02
0c
0f
00
f2
fb
f5
f4
ec
e5
f3
00
fd
00
ff
fa
04
1b
15
0a
f3
fd
f7
fb
06
00
01
06
09
08
0d
0f
08
07
05
fa
f5
ed
f7
f6
e8
f9
07
f3
0e
17
fe
ee
f6
12
fe
fa
fe
f9
05
10
0f
10
12
10
0d
0c
fe
f4
ee
e8
ea
e2
f0
01
08
00
09
16
fe
ec
f2
02
fd
fa
0d
fe
0c
11
06
0b
0c
0d
10
12
07
fd
f0
e6
e3
f2
f5
f1
f3
f1
06
fe
1a
e7
ee
06
11
07
06
07
10
0f
08
10
06
0b
13
17
0e
03
ee
e4
e9
fb
fb
ef
ec
f8
fb
e2
17
fd
de
00
14
02
03
05
04
fb
00
0d
0b
0e
1b
15
0a
00
fd
e8
e7
f5
fb
f4
fb
f3
eb
df
f7
03
e2
f9
13
0b
00
fc
fd
fb
03
03
ff
12
19
1c
18
0d
03
f4
ee
ef
ec
ec
01
08
f3
ed
00
1f
06
13
0d
05
fd
01
fc
02
05
fd
02
0e
0c
1c
23
19
10
00
ed
e1
e7
f2
f8
01
fa
00
ff
ec
20
0f
0d
0e
0d
01
fe
fe
06
fe
01
0c
11
14
1e
1b
0f
0a
fa
fd
fb
f1
ef
f3
f1
00
02
e6
18
1e
10
15
0f
00
fd
01
01
06
02
09
0d
12
1a
14
0b
0d
03
f8
f0
f2
f8
e9
ce
e2
f6
ff
0d
0f
14
13
06
04
06
05
ff
06
00
0c
0e
11
11
0f
09
12
ff
ed
ec
f0
f0
e9
d6
eb
01
0e
04
ec
11
0e
ff
ff
fa
fc
f9
fc
04
0a
0f
0c
11
15
19
13
05
00
00
01
f5
f6
f6
ff
01
0c
25
08
09
0c
09
01
fa
04
00
01
fa
05
03
0c
04
0b
15
0e
0c
0e
fd
01
f6
0d
22
0e
fe
00
1e
fb
f4
f9
15
04
0c
0f
12
0a
f6
03
fa
fb
f7
0d
1e
12
0a
fe
fc
14
13
1f
23
ff
00
02
0f
f5
e4
e7
fd
ee
0e
e7
0c
01
fb
05
e6
de
f8
fc
f9
f9
00
eb
e3
f1
12
ff
ec
f6
02
fe
f8
fa
fc
fc
f4
ff
02
03
00
02
01
00
ff
ea
f6
f4
ef
fe
fe
01
00
ff
01
ff
02
ff
fe
02
fe
00
02
00
01
02
02
fe
01
01
fe
02
01
fe
00
01
ff
ff
02
00
00
01
02
01
00
fe
fe
02
01
ff
00
01
ff
fd
ff
fd
ff
fe
fd
01
00
02
ff
01
fe
03
02
ff
00
fe
fe
ff
00
fe
00
02
01
fd
fe
fe
01
fd
ff
fd
00
02
fe
02
00
00
01
01
ff
ff
ff
01
fe
fe
00
02
fd
00
02
02
ff
ff
ff
ff
fe
01
00
ff
ff
02
ff
00
ff
01
ff
ff
fe
02
01
00
ff
fe
ff
ff
ff
ff
02
00
00
fe
fe
01
ff
ff
fd
01
ff
00
01
01
00
fe
01
fe
02
02
01
01
fe
01
fe
00
00
fe
fe
02
ff
fe
01
01
02
00
02
ff
00
ff
01
01
ff
fd
ff
02
02
00
00
00
fd
fe
02
00
00
01
00
ff
00
ff
02
fd
fe
00
02
00
01
fe
01
ff
01
fe
00
00
ff
fd
00
fe
01
01
01
ff
00
01
fe
02
ff
00
00
01
02
01
ff
fe
ff
ff
ff
fe
fd
fd
fd
01
00
ff
fe
00
02
fd
fe
fd
fd
ff
01
02
fe
02
00
fd
00
ff
02
fe
fe
fe
01
ff
fe
00
fe
fe
fe
00
ff
fe
01
01
fe
00
00
fe
ff
02
fe
ff
02
fe
fd
ff
fd
01
ff
fe
fe
fd
01
fd
00
ff
ff
00
00
fe
ff
01
fe
00
fd
01
fe
ff
fd
fe
fd
00
02
00
02
fe
fe
fe
fe
00
02
ff
02
01
fe
ff
02
fe
01
00
02
01
00
fd
02
02
ff
ff
fd
00
fe
01
00
00
01
02
01
02
01
01
ff
fe
00
fe
00
00
00
01
ff
01
02
fe
01
00
fd
01
01
fe
01
ff
ff
ff
02
ff
ff
ff
01
fe
ff
01
00
02
ff
fd
ff
ff
01
01
fe
ff
00
00
02
ff
fe
fd
ff
fe
fe
fe
fd
01
fd
fe
fe
01
01
ff
00
01
01
01
fd
00
fe
ff
ff
ff
ff
fe
01
fe
00
01
ff
fe
fe
fd
ff
01
fe
fd
fd
ff
fe
02
00
fe
00
01
fe
01
01
00
fe
01
01
fe
01
00
01
fe
fe
02
fe
00
00
fe
00
ff
01
fe
ff
ff
00
02
fe
00
ff
fe
01
00
02
fd
00
02
fe
ff
00
00
fd
fd
00
ff
00
02
01
fd
00
fe
fe
ff
01
ff
fd
00
ff
ff
02
fd
fd
01
00
01
ff
01
01
fe
02
ff
02
fe
ff
00
fd
01
01
ff
02
ff
fe
fd
01
01
02
ff
fe
fe
ff
02
02
02
01
fd
ff
ff
fe
ff
01
ff
ff
fe
01
01
fd
00
ff
ff
fe
fd
fe
fe
fe
00
ff
fe
02
ff
02
01
00
fe
ff
00
02
ff
fd
02
ff
00
ff
00
02
01
02
fe
01
02
02
fe
02
02
ff
00
01
ff
02
02
02
fd
02
01
fe
01
00
fe
02
ff
01
01
01
fe
ff
02
02
00
01
fe
00
fd
ff
01
fe
ff
02
02
01
02
ff
00
fe
ff
fe
ff
02
fe
ff
02
fe
fe
00
fe
ff
fe
fe
01
00
01
00
fe
ff
01
fe
ff
fe
02
02
ff
00
02
00
01
fe
fe
00
01
fe
fe
01
01
fd
fd
ff
00
01
01
02
02
01
02
01
01
00
00
ff
ff
fe
01
fd
02
00
ff
fe
fe
fd
fe
01
00
fd
00
02
fe
00
00
00
02
01
01
01
ff
01
00
02
fe
fe
ff
fd
fe
ff
02
fd
01
fd
fd
01
fe
ff
ff
02
fd
fe
00
fe
01
01
01
02
01
fe
00
00
02
ff
fe
fe
ff
00
00
fd
01
ff
01
01
00
00
01
ff
00
01
fd
02
03
01
03
00
01
fe
fe
01
fe
02
03
01
ff
ff
ff
01
ff
02
ff
01
00
02
02
ff
ff
00
ff
ff
01
01
01
01
ff
fe
02
00
01
fe
01
00
ff
01
00
01
fe
00
00
01
fe
fe
fe
02
fe
ff
00
02
ff
02
ff
fe
ff
fe
00
00
02
06
0a
08
05
09
01
fe
01
ff
16
28
1e
24
f3
0e
0e
0c
0f
16
17
16
12
02
02
e9
eb
f2
08
05
d9
e2
f3
03
1b
08
e8
01
07
07
ff
f8
13
0f
fa
f0
35
fd
de
e8
2b
00
01
fd
0a
e2
03
0c
f0
09
f7
02
fe
f7
fd
02
fe
02
03
f7
03
07
12
09
13
05
fb
e9
0e
01
f7
2c
13
eb
ea
f4
02
ff
ec
f5
f9
fb
f3
fd
06
fe
03
f4
fc
02
0c
0c
0b
07
10
03
f8
12
d9
13
fd
f8
f6
00
0b
03
f1
f4
ec
e9
f0
f3
f3
ec
ee
fb
fd
f4
03
01
03
0f
06
ef
05
f7
cb
f6
df
f5
0c
12
07
fc
f2
fa
e9
f3
ee
ed
e3
e7
f2
fb
fd
f7
06
0a
05
0f
04
f0
f3
ff
f1
f1
e8
fe
16
0b
04
fd
fa
04
fc
00
f5
ec
e9
eb
ed
fa
f8
01
05
06
08
12
0c
fd
1d
1b
0c
ee
ed
eb
f6
e9
f0
fb
f8
04
00
06
00
f6
f2
ed
ec
fd
02
07
04
02
04
05
03
fa
fe
e0
14
e9
ea
ec
f0
e6
f6
fc
fe
f9
fc
01
fc
07
06
f9
fa
fe
0d
0e
04
03
f9
04
ff
f8
e7
e5
04
09
02
f8
e8
ee
fe
f9
fb
f9
02
06
0b
12
0a
04
f6
f3
01
fb
fe
f9
00
0b
07
ec
e8
08
06
06
fe
f5
f2
f4
04
0a
01
ff
07
0c
0c
06
0e
09
fe
f4
f7
f5
00
01
14
10
03
de
e4
15
04
ec
e6
de
fc
05
08
0b
fd
fe
00
11
12
0d
17
08
fe
f8
f2
00
fe
07
0c
03
08
e2
cc
03
f3
f4
d8
dc
ff
05
ff
07
fc
fb
fe
0e
10
1a
19
07
fa
f5
fd
fd
fd
fd
f4
01
05
f8
ff
03
10
ee
db
e4
f0
f8
f8
ff
f4
f4
02
0d
11
1b
14
fe
f8
fe
01
03
03
f7
fa
00
04
10
fe
05
de
e7
0b
f4
eb
f3
f4
fe
fa
fa
00
1a
18
1a
15
0c
07
ff
ff
05
07
fe
fd
02
01
1b
19
00
d6
ea
07
fa
ef
f2
fd
fb
f7
f4
fc
11
16
16
10
0f
0d
03
0a
09
03
05
0f
fd
f9
f6
d9
ff
d2
ea
e7
e7
ef
fa
fb
f0
ee
f1
08
0b
14
18
0d
0c
08
03
0d
0b
09
0b
0d
f7
ee
f0
f5
02
d4
fa
f4
f9
ef
fb
f3
e7
e8
f9
06
08
11
0c
14
0e
06
02
0b
09
03
f8
fb
f4
e8
0d
fc
ef
ec
ee
02
02
f8
f4
ef
e5
ea
f4
06
13
11
10
10
05
07
06
05
01
02
fd
f8
f7
ee
ff
f2
00
1d
f4
e9
fe
fa
f4
f7
ef
f0
f6
01
13
0b
0c
09
fd
03
fd
fb
03
09
02
f3
ee
01
fe
e8
ff
08
25
f7
fd
f3
f7
f6
eb
ef
f5
fb
09
0c
14
0b
fe
fd
f8
fe
08
04
fb
f3
00
f8
df
f0
ff
27
f7
f2
e6
f1
f6
f3
ed
f4
fe
fa
fd
06
0d
03
04
02
fe
ff
05
fd
f1
fa
08
fd
c9
c7
e9
22
18
f6
e8
fb
f3
f9
ef
f7
02
fe
fd
07
06
04
09
04
fc
ff
fc
ff
f4
f0
fe
fb
e6
c7
01
09
13
f2
f7
fd
f3
f5
f5
f9
04
0a
06
0e
07
07
ff
07
f6
fa
f1
ff
fe
fd
fe
07
f4
dd
ff
05
2d
0e
fb
ff
02
f4
fc
fd
00
07
02
08
0c
0a
ff
fb
ea
fe
ff
fa
fc
05
06
f6
f9
f3
01
02
1d
f2
fc
fe
04
06
10
04
f4
09
11
08
07
fe
06
0c
fc
fc
05
03
0c
0b
11
fe
09
ee
00
01
0a
d3
e2
0d
32
23
fc
03
f4
09
0c
fe
09
fd
e0
e8
08
e0
e8
eb
0a
08
23
13
0a
ee
01
01
13
17
1d
1b
0e
fe
00
06
e6
ff
ff
1a
fe
17
08
0a
13
05
02
fe
ff
fe
01
01
01
fe
fe
ff
00
00
00
f8
f8
f8
f9
f6
f9
f4
00
01
02
ec
de
e6
df
04
e5
e5
f7
f1
f0
ef
ee
f4
02
00
31
fa
e8
f1
06
f4
d2
dd
ca
01
ec
fe
e9
e5
f5
ed
06
e2
e8
d3
f8
0e
fb
11
e5
e9
fe
fe
2a
17
31
2d
2a
0f
fa
04
f6
0d
f8
07
13
06
0e
08
01
04
0a
0b
0f
15
22
19
f5
fc
01
15
c0
fc
27
0f
17
1c
21
12
0d
09
00
06
0a
02
08
07
02
ff
02
08
03
ff
08
fe
fa
fb
f6
22
03
21
0e
06
13
07
07
08
07
04
f6
fc
01
0a
0d
04
05
fd
f6
fe
fc
f3
fc
f8
f7
f3
e1
31
0e
29
0f
00
0c
04
09
08
04
fa
fb
05
08
03
06
fd
fc
fa
f3
02
fb
f2
fe
fc
fa
e1
fa
23
07
12
10
ef
fb
ff
02
05
ff
01
02
08
03
0b
03
02
00
00
fc
f2
f0
f6
02
f6
ff
09
e3
1e
f5
01
10
f9
ff
04
00
f7
f6
f5
f6
fe
02
0f
05
fb
f9
fb
f3
ef
f1
fa
0a
fd
18
01
d8
1a
fe
22
19
fa
f7
f9
fc
f8
f9
00
01
fb
fc
ff
f9
f5
f7
f2
f1
f9
fe
ff
05
0b
19
0b
dd
08
21
1c
08
fc
f9
f3
f8
f6
f0
ff
f5
ed
fd
03
fd
f7
f8
f2
f7
00
03
0b
0a
0d
09
11
19
06
0d
19
0b
f4
f9
f6
fc
fc
fc
f7
f0
f8
f9
00
f6
f8
f5
f3
f8
05
03
0f
0a
07
00
08
21
03
46
04
03
ef
fb
f6
f1
fb
04
f2
f7
06
05
0d
04
fa
00
f6
01
0b
ff
08
0a
01
f6
04
14
df
1c
f4
f1
e7
f6
f9
f2
00
0a
fa
03
13
0e
17
0f
07
13
06
0e
06
07
10
13
0d
0d
0c
21
df
0a
e3
eb
e8
f4
f5
f6
01
0c
06
07
0c
12
1a
1b
0f
10
0c
02
f8
fe
12
0b
09
0a
f3
21
dc
f1
fc
f2
ee
f9
fd
ff
09
0e
10
14
18
1f
1b
14
0b
0e
08
ff
fc
0a
16
06
0c
12
41
20
df
d3
f4
f9
fc
ff
fe
0a
09
06
0f
1a
1d
1e
1e
07
03
06
07
ff
06
12
0e
09
17
2e
3a
1b
e4
eb
05
0a
fa
fa
00
08
07
09
0d
17
15
0b
13
00
03
fd
03
fa
03
00
04
07
08
22
32
17
11
ec
14
0c
fb
f7
00
f8
fd
04
08
0f
09
07
03
fc
f9
ff
02
08
03
03
0d
07
fc
15
04
1d
11
f8
17
06
03
ff
05
00
03
0c
07
0a
0c
07
02
fe
ff
0c
16
0d
04
07
00
f6
fc
0e
e9
00
ef
07
20
fd
04
fe
03
06
06
0a
0b
09
0e
0f
02
fc
03
0e
14
0f
07
04
05
01
fd
00
06
ff
e1
0d
12
fc
07
05
08
0b
0f
0d
11
13
0f
12
00
03
05
04
07
00
05
02
02
07
13
25
50
02
d2
09
09
fe
01
08
08
fe
03
09
0d
0f
12
0e
05
06
0a
f9
fe
03
0d
07
08
10
16
15
23
04
da
0f
fa
07
fb
0a
fc
f8
fe
07
07
0f
0f
02
f8
f7
fb
f5
06
0d
0f
0e
0f
14
20
0c
00
1c
1a
12
f2
07
00
fa
f7
04
ff
0a
07
0b
11
04
fa
fa
f8
f0
fc
fe
fc
f8
ff
00
14
f8
d5
02
1b
2b
22
0f
09
fc
fe
05
02
05
fc
fc
08
00
ff
fc
f6
f2
ed
01
09
02
07
05
11
13
f8
ff
fe
04
02
fb
04
07
00
f2
fd
05
10
03
12
0a
fc
ea
e9
fc
f1
0f
19
11
0c
11
0e
f2
f7
00
ff
1e
03
d8
f1
fa
ff
03
01
1c
36
11
ff
f1
ed
dd
07
f9
fd
03
19
f9
e6
f2
f3
c3
cc
00
01
f1
ed
e9
ec
f1
02
fe
f7
16
ff
01
1a
00
e6
f3
ed
e2
f7
00
ff
02
fe
01
ff
fe
fe
fe
01
02
01
00
0f
12
14
12
15
14
10
fe
01
02
e9
e5
f4
e1
e6
ee
eb
f2
f1
ec
ea
e9
ed
01
fe
f2
0f
f5
e6
09
14
f9
f8
fc
f6
f4
06
fd
fe
01
e1
f4
fa
f5
f7
07
f8
f9
04
06
f1
ff
00
f3
fb
ed
e6
fd
f5
ea
ef
07
ff
fd
02
09
00
00
10
0b
00
0a
00
13
02
05
e9
ed
f6
ff
0c
f0
e3
ed
05
06
03
0f
06
05
0a
08
06
03
0b
13
0c
0d
0d
0c
0f
01
09
08
ef
fb
fd
0d
e8
e2
f3
04
06
fb
08
0d
ff
00
04
0a
0d
0e
0b
14
11
13
0a
09
01
ff
13
0e
0b
01
0a
13
e3
12
17
06
07
01
0f
0b
00
08
0b
0a
0e
0d
0f
11
0f
0b
0a
0e
0c
15
16
0b
18
0b
ef
03
f1
0d
ff
f7
04
0a
ff
00
06
04
01
06
0d
0f
0b
11
14
12
0f
14
0f
12
14
1d
1c
1d
fe
ea
fc
17
fb
fd
14
12
fd
02
0f
0f
08
0c
09
14
0b
14
13
18
14
12
13
13
14
1c
15
26
fe
19
fb
30
fe
09
19
17
0a
16
10
0b
15
11
0d
12
0e
13
09
0e
10
09
0f
0b
00
03
0a
10
fb
17
e5
f7
02
0a
0c
03
02
01
fb
ff
09
03
ff
ff
fe
fe
fb
fc
fd
fd
02
ff
f7
ff
fb
05
fc
01
1b
09
07
0a
f8
f3
ee
f2
f3
f7
f5
f2
f8
f2
ee
e7
f0
f4
f3
f9
f7
ff
06
0c
03
12
1d
ff
fb
f4
03
06
ef
eb
e6
ef
f6
f8
fa
01
fa
f2
f0
ed
f9
fe
02
fc
f6
fb
0c
0a
02
f9
15
fe
ec
dc
fa
05
f1
f5
f5
f0
f4
fb
fc
05
f9
fa
f7
f4
f9
fe
08
ff
fe
fc
02
f9
f3
e7
02
02
e6
05
f0
f8
ed
00
f7
f8
ff
fb
f5
f9
e9
f5
ed
f3
fa
0a
01
fe
00
f5
00
ed
fb
03
09
00
fc
08
e7
e5
ef
fb
f8
fe
00
fe
f9
f6
f0
ec
ee
fb
fb
fa
fb
fe
f7
fb
ff
f5
02
04
fd
fe
fb
03
f3
de
f0
eb
f4
f5
f8
ff
fa
fc
f7
f8
ff
06
04
ff
01
ff
fd
f8
02
03
05
fa
d3
fe
f7
0d
fe
f3
fa
f0
fb
fe
f6
f8
f4
f1
e9
f6
f6
fb
fa
f5
02
02
f7
ec
f2
ff
f5
ec
ea
00
ff
25
01
0e
01
ef
f7
fa
f9
f2
ec
ed
ef
fa
f0
f6
fa
ee
f7
ef
f8
fc
f8
08
f2
e7
19
00
de
f0
05
12
ff
f5
ee
f1
ed
e3
e6
e5
de
e9
e4
ea
ea
f1
f9
f9
0b
04
0a
0b
f9
f6
06
01
0b
15
21
15
0b
01
06
f9
f2
ea
ec
e9
e2
e5
e4
ed
f4
fd
0b
05
15
0e
12
04
14
01
d9
00
0b
0f
1c
1f
11
0c
0e
06
03
f9
04
09
fd
f9
f8
fc
fe
fe
12
02
09
00
0d
0b
08
05
e3
01
fb
03
2a
2e
14
0c
15
1c
19
1c
14
0a
0d
0a
0a
08
09
0d
06
05
0c
02
09
fe
04
33
1c
03
e4
27
34
1f
06
12
1a
1a
1c
1a
17
0e
0c
11
0a
0e
09
07
09
0d
10
04
02
f9
fa
29
29
0e
e2
18
0e
f6
f9
0b
14
10
15
1c
14
18
10
12
12
11
13
10
0c
0d
09
05
17
03
ea
10
23
02
e6
e1
fc
ef
f6
ff
0f
0c
01
09
0a
12
15
09
0b
0b
14
0d
11
ff
fa
14
1b
03
01
12
2c
02
01
0b
fe
fa
0c
f8
16
15
f8
06
0b
12
0e
0b
20
0d
0a
03
0b
fb
ec
0b
0f
fc
14
28
4d
02
01
e1
0e
28
f6
f7
27
38
1d
12
1c
06
0a
fe
37
2b
0c
f4
09
10
09
15
1a
25
04
0d
fd
00
fe
eb
eb
ed
e9
f0
01
02
fc
f9
02
00
fe
01
fd
11
07
fd
11
02
00
02
ff
fe
02
00
01
ff
ff
02
00
ff
f9
f5
f8
f3
f7
f8
f5
00
fe
00
10
21
1c
06
01
03
03
0b
0d
fe
fe
fe
00
00
01
e6
03
1a
ed
ed
07
22
36
f6
09
0a
fa
fe
f9
13
15
f7
0b
fd
f6
06
22
07
ff
01
12
00
02
01
f8
f3
fd
f8
10
25
2b
f6
e8
f3
f4
f3
fe
06
02
ff
06
03
0c
fb
01
f8
14
1b
fc
02
f1
1f
15
e5
f7
11
1d
1e
16
07
0a
05
fc
fe
01
fd
fd
fa
01
ef
ee
e9
ef
f4
05
10
13
fd
09
21
03
ed
05
13
0f
14
12
05
fb
f3
ee
f7
fe
f3
f7
f9
01
fa
fe
f0
f2
ff
00
03
f5
fa
04
e9
c8
e7
fe
0e
0b
13
17
0a
f7
fb
fb
f9
fa
ff
05
05
04
fb
fb
f8
fa
09
13
1a
09
ee
05
e5
e9
f0
ee
f7
08
12
23
10
0c
06
fb
00
ff
f7
05
06
fb
f5
01
fc
03
12
1a
15
1e
1f
05
df
f8
eb
f4
f1
06
1e
21
13
11
0a
ff
fc
ef
f2
01
07
fc
fe
fe
f9
06
11
1b
13
27
e2
0a
e1
e9
e0
f4
fe
0b
0f
16
0d
0f
09
04
ea
e5
ea
fa
f8
f5
fd
fb
06
00
08
15
16
1f
eb
f4
1c
f7
da
ee
f4
0a
04
0a
09
0d
12
04
e4
db
ec
f1
f4
f4
f1
f5
06
03
07
06
fa
07
f7
fb
2b
fd
dc
e7
e2
fc
f8
00
03
1f
1e
06
e9
e8
f2
ee
f3
f1
ee
f6
fa
f8
fe
04
fd
0d
f7
0d
0f
f5
dc
dc
d1
e8
ec
fe
04
10
11
02
f3
fb
f9
f3
f6
fe
fa
fe
03
fe
04
fe
f4
f1
00
ff
0f
ec
d4
e6
db
e1
ed
fa
09
0e
0f
fe
f6
0e
09
05
0d
05
05
00
04
05
15
fd
e5
e7
ff
1b
f9
d9
e8
eb
e2
e2
e5
ea
00
0e
0d
fe
f5
03
0b
0a
0e
07
00
01
04
0b
0c
ed
e9
ed
ff
ef
e0
d8
e6
d9
e4
e4
e3
f3
03
0f
11
08
fd
04
08
11
09
04
fb
ff
01
0c
fa
e8
f3
08
fe
f2
c6
cf
e3
d5
e7
eb
e7
fc
07
0f
0c
fe
ff
08
0c
0d
08
06
fd
ff
04
02
fd
ec
f7
1b
fd
01
e0
db
e8
dd
ed
ef
f8
09
09
0c
09
05
01
04
0e
0e
10
06
fe
fb
fa
fb
06
08
0c
14
02
1b
e8
e3
e9
ec
f6
f7
f7
00
07
07
02
fd
f9
03
04
04
06
02
05
02
f9
ff
0a
14
0c
df
04
0d
02
f2
fa
04
06
05
06
0b
0b
0b
04
f8
f1
f7
fa
fc
04
06
04
fa
fa
04
0d
05
e5
ed
00
dd
21
05
01
0d
0b
06
0e
10
18
0c
0c
03
fe
fe
fe
02
02
08
00
fd
01
0c
0a
08
08
f0
01
fa
38
0c
05
10
0d
09
0a
08
0e
10
0f
0b
07
05
02
09
02
fd
06
0a
09
04
05
0d
01
02
01
07
0f
0c
fa
0c
0e
08
07
03
04
09
0a
09
05
04
06
06
fe
00
0a
07
fe
fc
03
14
df
0b
16
18
11
0b
06
13
0c
07
01
f7
fd
06
01
0e
05
02
04
06
00
0f
0f
0b
05
08
fe
0a
f4
e5
02
1a
05
09
12
12
0b
08
0f
03
fc
fe
04
0a
02
05
09
05
12
15
0b
07
0b
00
f9
f9
05
02
00
1d
1b
0b
03
07
0b
01
05
00
fb
fe
01
00
04
07
08
04
08
f9
f3
fc
f0
f4
f9
f1
17
e9
fe
fe
04
0f
03
05
0a
fe
fe
f2
f2
fe
02
0b
08
00
02
06
ef
ec
f3
f2
f1
f7
fe
03
0b
e1
00
ff
f6
cf
d5
ef
f7
f9
fb
f7
f7
17
2a
28
12
ec
db
e6
f2
00
f5
06
ed
e6
f9
05
0e
0e
ff
00
ff
02
f8
f8
0c
02
02
17
ff
01
02
17
fe
06
f8
ed
f2
f4
02
02
ff
ff
02
ff
02
01
fe
00
fe
00
fe
05
03
05
04
03
05
01
ff
02
01
f1
e2
e6
0e
06
fe
ff
fc
fa
eb
ee
ee
f1
00
fe
e8
ff
f5
20
1b
fb
ea
f5
f7
e2
e0
11
fe
0f
15
f2
07
0c
f9
dc
e4
ed
ca
09
03
ec
01
fe
dd
fd
fb
13
12
26
f7
f8
16
0c
f9
ff
0c
f5
f4
f7
09
0c
12
f2
f4
02
ed
f5
07
f9
01
ff
14
24
18
01
03
10
fc
01
f7
ed
f2
fc
02
03
fa
ed
fc
05
01
00
f3
04
ff
f6
f6
f1
0b
07
1e
21
13
f1
f6
0a
12
fe
00
03
02
06
01
03
05
fb
0a
06
03
03
f9
0a
00
02
ee
ef
1a
fd
ff
03
0a
07
01
11
1d
18
08
0a
06
fd
00
04
fa
fe
11
0b
0a
09
01
fc
fe
fb
f8
07
17
03
07
ff
17
1b
0f
11
1b
11
0b
0e
04
fe
08
fd
f7
02
08
05
0e
05
03
00
09
0d
11
29
1d
1a
21
04
0b
0b
0f
15
12
0e
08
0b
07
08
06
fa
04
0a
ff
01
ff
fd
03
10
13
1d
18
18
32
23
0c
0f
0a
09
11
0f
16
10
0f
11
0d
10
02
01
0b
11
0d
fe
fd
0b
10
14
0b
10
09
05
29
22
12
04
0f
0c
06
0c
0c
18
19
15
0e
10
07
12
11
18
16
07
ff
04
fd
02
f6
f6
07
ff
0d
20
fd
04
18
17
0d
10
0d
22
1d
15
13
0c
11
1e
1f
1e
1a
0e
0a
05
07
f1
e0
d6
ef
02
ff
19
0c
19
11
15
12
0c
11
16
1b
12
0a
07
10
17
1c
1f
17
09
04
01
ee
e1
e6
ed
09
19
fe
18
01
1a
00
03
fd
fc
fd
fd
05
0d
0e
0d
13
15
15
15
07
01
07
fa
f2
df
e1
f2
ec
04
fe
1e
04
f5
e3
f8
f6
ee
f2
f2
fc
03
07
0a
0e
0f
09
04
f5
ed
ea
e4
de
cb
cb
d2
ce
fd
01
fc
0a
ed
de
e5
e4
d8
db
e4
f0
f8
01
03
03
05
03
ff
f8
eb
dc
dd
d8
cf
df
e4
e6
16
fe
0e
fe
e6
c8
cb
da
d5
e3
e3
ea
f8
01
05
fe
fb
ec
ee
ff
f6
eb
f0
ed
f0
01
eb
e1
11
02
1a
ce
c9
c7
e0
ed
ed
f2
ed
eb
ff
05
04
ff
f6
f0
f5
f1
f3
ee
f6
f9
fd
09
fa
d9
ee
00
13
e4
c3
d4
01
ff
f5
f8
f5
f3
01
0c
06
fe
ed
fb
f6
f0
ee
f4
f4
06
fc
f9
fb
f3
e8
f1
10
e0
c8
e2
f2
fa
f2
f3
f9
fa
fd
01
f8
ed
e8
f0
f2
ef
ed
fa
fd
08
ff
fe
fa
f0
e0
00
f9
f1
f7
f7
f2
fc
fe
05
05
06
ff
fd
fa
ea
e9
f6
f7
f8
f8
fc
f8
fe
fc
06
eb
dc
b5
02
ef
15
0c
0e
05
0c
0b
0a
06
02
f4
f0
f5
eb
eb
fc
fb
fe
02
fd
f7
fc
f8
04
e9
e6
bc
fe
00
0f
fb
0b
11
0b
ff
01
fe
02
f8
f6
fa
f5
fc
00
fd
fd
fc
f6
f3
fb
fd
03
ec
e7
f0
fd
00
f9
06
11
10
ff
f8
f9
f9
f9
f1
ff
02
fc
fa
fa
ff
fe
f9
03
03
06
06
fb
f0
e9
e4
00
06
e5
05
1a
09
ff
fd
fb
fe
f6
f1
f4
fa
f7
ff
07
00
f6
f6
fa
04
07
fa
ff
f3
e1
d5
02
02
ff
06
12
0f
08
00
01
ff
f7
ef
f2
02
02
07
05
01
f6
f2
ea
f2
f5
f3
05
04
e3
f2
ff
01
13
f9
f1
07
0a
f4
e9
fb
fe
e3
00
02
0d
fa
f8
fb
f7
ed
e2
ea
e0
d9
f9
02
e8
f7
02
fe
f6
27
0e
f5
ea
df
d9
ed
0d
f2
e9
ed
e2
fa
ed
ec
11
f5
d5
ea
d8
dc
ee
ff
fe
10
02
00
f2
ed
f4
05
fc
ff
01
e9
fd
02
ff
e5
ff
f6
fd
fe
05
02
ff
01
00
01
01
ff
00
fe
01
02
ff
01
01
07
14
15
15
12
14
0b
00
ff
ff
0d
1d
19
13
08
05
03
0a
0e
17
16
17
0e
01
02
26
29
02
08
1c
10
0a
15
17
1d
2d
23
18
03
21
1e
26
0a
0c
f8
e9
07
10
f8
da
eb
fe
01
19
0c
fd
15
14
0f
19
23
0a
0f
1e
19
16
10
04
17
08
fd
0f
09
ea
f5
10
f2
fa
ff
02
14
21
1e
15
13
15
1a
0f
0f
04
0a
11
13
0a
0d
08
0c
09
00
07
0a
fb
fc
fe
ee
0c
12
04
ee
13
1c
15
0c
12
14
06
00
07
08
01
01
09
11
18
11
09
07
02
08
04
03
04
f2
ec
0c
fe
e3
15
12
14
0d
0c
0b
09
04
08
02
0b
fd
03
10
16
06
09
0b
05
09
07
03
08
02
e7
ec
0a
0a
e1
06
1b
1a
11
0a
01
03
08
0a
0d
fd
02
0c
08
07
0f
07
08
09
03
f9
03
fc
ef
0b
1d
19
ee
08
17
1b
15
09
01
11
0d
0b
03
01
ff
01
00
08
07
0a
03
0a
04
01
05
f7
e6
21
fb
12
02
19
1b
12
08
00
fb
0b
05
06
03
0b
06
f8
fe
fd
07
10
08
0a
11
12
08
fc
ea
01
fd
1d
25
07
09
05
ff
05
01
09
05
0b
09
0d
09
00
fa
f8
00
08
01
07
03
08
07
13
f8
e3
05
19
d4
e0
f9
fd
06
0e
07
09
0b
0e
10
13
0a
0d
f9
f2
fd
02
03
fe
fb
fa
04
1b
07
df
03
07
c4
cf
e4
ee
f9
02
f9
07
0c
07
0d
12
16
10
02
fd
fb
01
00
ff
01
02
00
0b
17
15
00
f4
ed
d1
d3
e5
ee
f3
ef
fa
fe
f7
01
0e
12
04
fd
ff
01
01
01
0b
04
04
07
04
1d
19
fb
f2
e2
d8
d7
e1
e0
e4
e6
eb
ec
f5
fd
0a
05
ff
07
ff
08
fb
fe
07
03
04
0b
11
14
0e
06
de
df
e5
df
e2
d9
db
e5
e7
e6
ee
fb
06
04
00
fe
fc
fd
fe
fd
08
03
08
fd
04
08
22
07
de
01
f5
f5
f4
eb
e4
ec
e8
e7
f0
f4
f8
05
02
0c
ff
f9
ff
f9
03
07
08
f7
fb
f3
12
fa
d9
07
00
03
08
03
00
fd
f2
ea
ea
f6
fd
0c
0b
0c
02
fa
01
fe
02
01
06
f7
ee
eb
fc
f9
e2
08
0f
0d
14
12
13
08
fc
fa
f5
f9
fa
01
13
12
01
01
02
00
02
fb
fd
f6
ea
e8
05
02
dc
15
14
12
13
16
19
10
08
03
ff
fe
ff
03
12
0d
06
06
0b
00
fb
f7
f9
fe
f3
e6
06
fe
16
17
04
09
0b
06
04
08
10
0b
fb
fd
fb
02
0e
0a
02
03
08
fb
fc
fc
fe
03
08
ea
f8
02
01
0d
f1
f8
f8
f9
f7
02
09
0e
00
fb
f6
04
02
02
05
02
03
f8
fb
ff
fd
05
15
fe
f4
fe
21
fe
e9
fd
fb
fa
00
fd
ff
fe
fd
f8
f2
fd
ff
02
01
fc
fe
fd
01
00
01
fe
f6
e1
e2
fc
1a
15
01
09
00
f6
fe
fc
fe
03
fd
fc
fc
f4
ed
f3
f2
f8
03
00
00
fb
03
08
0e
fb
ee
fd
ed
da
f4
03
0c
f8
ff
0a
03
fe
fe
03
00
f1
ed
ec
f0
f2
f9
fc
06
fb
fe
04
0d
0e
fc
01
ed
01
0c
12
22
02
f9
03
03
ff
fc
f4
fb
fd
fc
f2
ef
ef
f7
ff
0b
0d
0b
fe
03
0d
08
01
ff
05
03
fd
08
0b
0f
04
f9
fe
ff
07
fa
f3
e7
d2
e0
d5
ea
fd
fd
13
fa
e5
f9
fa
e6
ff
01
f4
0b
03
22
27
0b
d1
d5
e4
18
01
d9
f4
03
e9
ee
df
cd
f1
e0
00
ed
f1
02
dd
e3
fe
fe
12
15
1a
1c
0b
01
fe
1f
10
00
fe
1c
ff
1a
14
08
00
13
01
fe
00
ff
00
00
01
02
02
ff
02
02
fe
fd
ff
fc
00
00
01
fd
02
00
02
17
1a
11
ff
0d
0b
0c
0d
10
01
00
fe
ff
ff
ff
08
12
3e
23
fd
df
00
08
f6
f2
f1
dd
e4
e7
ec
f5
23
10
04
ea
fd
0e
f9
f6
db
fd
02
00
21
19
12
f8
02
f9
06
01
0d
03
07
18
07
04
fa
fe
fd
ec
e9
ed
fb
fd
13
16
f7
ec
fe
ed
05
04
fd
f5
08
0b
05
03
12
0b
05
02
07
fa
02
09
fe
f8
ff
fb
eb
ee
00
16
15
fe
14
fd
01
f9
fa
01
15
11
06
0e
0c
07
fd
02
0a
05
0b
03
04
f7
ff
03
fe
f7
fd
01
03
1c
11
e2
12
fd
04
0a
0c
01
01
04
03
fb
fc
08
0d
04
07
02
06
05
06
0a
08
07
0c
06
02
19
13
02
00
fa
12
12
0d
fb
04
06
07
04
fe
04
07
05
09
10
10
0d
0d
14
10
14
20
18
05
1a
10
09
e5
fc
09
05
f8
fa
03
09
07
0b
07
05
08
05
0e
1b
13
15
1b
24
27
24
1c
1c
ff
01
ed
09
fa
08
00
fc
f0
01
07
0a
f9
06
08
08
09
0a
10
15
16
1b
28
2d
20
2f
29
1b
03
01
ea
14
06
12
17
0d
02
ff
0c
ff
f5
fa
07
fc
fa
f6
f4
fb
06
06
0d
17
16
15
19
25
20
fc
10
1a
fb
01
0b
00
ff
f7
07
04
fc
f9
fa
fd
f0
e3
df
d0
d5
da
df
e7
e7
ef
fe
01
00
ec
12
0a
07
16
06
f6
00
00
02
04
fd
fd
01
00
f9
e9
dd
c9
c1
b9
c3
c3
cb
d4
e4
e3
da
d5
ff
fc
24
30
fe
07
08
ff
08
06
fc
02
09
01
07
01
f8
ed
e0
d9
d6
c0
c0
c7
d2
db
d7
ee
e7
ff
19
0e
fd
0a
0c
03
0e
01
00
09
10
0b
08
0a
0b
0e
03
fb
f9
de
da
de
da
d8
ec
0b
e9
1b
11
fe
01
01
0c
00
0a
06
02
08
0a
01
04
03
0b
09
0c
0b
ff
f7
ee
df
ca
d3
eb
d9
eb
07
15
12
ff
fe
0a
06
06
04
00
0e
16
0b
06
02
0b
08
07
0e
04
fe
f7
ed
d9
e7
f3
ca
e7
15
ee
0a
f1
ff
fe
f3
fd
f9
f7
05
0d
0b
06
07
09
0d
04
05
01
01
07
00
f0
f0
f5
b6
e5
25
f1
fc
ea
f4
f8
f4
f6
f1
f0
fc
01
00
03
06
ff
0b
05
12
08
04
0e
0e
00
f1
fc
ef
ef
11
f8
07
f7
f1
ef
f3
f5
f8
f2
f8
ef
f5
01
04
01
0d
ff
12
0d
08
11
0d
0a
fc
fb
e7
ff
ed
23
15
01
fc
f9
fa
f6
02
f9
f5
f0
f2
f4
00
03
fc
f9
10
0e
0c
12
0d
05
0b
23
16
01
08
06
07
02
fa
02
fe
ff
0a
00
fc
fb
fb
f8
fe
01
f5
f5
fd
03
0d
08
00
ff
13
17
15
01
09
f1
01
06
00
fd
f4
f5
fd
ff
09
01
fc
fc
f6
fc
07
fd
f4
fc
fe
0a
0d
13
19
15
1d
de
1c
17
f6
02
05
02
f2
f8
fb
03
06
fd
f8
f2
f3
f3
fc
fc
ee
f5
fa
07
08
00
06
06
10
eb
00
17
f7
ee
ec
03
08
07
03
06
09
05
02
ff
f9
f2
fd
04
04
01
02
04
ff
02
0b
0f
15
fe
03
ed
02
fe
eb
0c
09
09
fd
ff
fa
f8
fc
01
fe
f8
02
fe
fe
f8
03
09
09
06
0b
1c
2b
02
00
ea
ff
e2
d1
e1
de
e4
ec
f6
ed
e9
f4
f9
f0
f5
fb
fb
ed
f5
03
0a
1f
1a
10
1f
13
ff
00
fd
03
c1
ba
be
b2
c1
e5
df
e1
e4
fb
10
e6
dd
e9
ef
c5
e5
ed
f1
1a
04
17
2e
1d
ff
fe
00
fd
fe
00
10
00
02
0b
02
00
ff
00
02
15
10
0d
06
ff
00
02
fe
00
ff
ff
fe
00
02
fe
ff
01
ff
04
ff
03
01
04
ff
02
ff
01
02
15
21
17
22
30
17
1b
0c
0d
17
18
16
13
00
fe
08
e1
cb
d9
dc
f5
db
c8
bc
ce
d2
f5
00
23
1a
2b
31
2e
1b
17
44
1c
1a
01
f2
ee
ff
01
1c
07
f6
08
0d
f8
e1
cd
c2
d5
e3
01
10
1a
18
25
28
17
2a
1d
14
0f
09
06
0c
fa
fe
15
e6
d9
fd
05
03
ec
e2
fd
e5
e6
fa
f8
fa
06
11
1d
25
18
1b
12
06
fb
04
f9
09
13
e8
0d
e2
f3
f1
fb
fb
ee
ea
f2
db
fb
02
f3
ef
fa
0e
16
19
1a
14
0e
0c
09
0e
0b
09
03
de
15
d7
11
f9
f4
ed
dd
df
eb
f0
fe
ed
f6
02
09
10
14
18
1e
14
11
10
08
07
00
f9
1c
f6
11
2c
16
f0
dd
dc
e0
e5
ee
fd
f3
f5
03
05
0a
04
0e
1d
24
1a
20
17
05
fa
08
0c
14
f3
df
15
16
f3
e1
e0
eb
ef
ef
ed
f2
fb
00
fd
fb
f9
00
10
27
1d
1f
12
09
06
0d
03
14
25
d6
0f
19
f9
f4
e4
ed
f5
ee
f6
f7
fb
f4
f1
e4
e9
ee
03
15
1c
21
0e
11
0e
0f
1c
12
23
04
14
0c
e7
ef
f2
f6
fd
f4
fd
01
00
f9
ff
f2
ed
e1
ee
03
13
19
11
0a
09
01
1b
0f
1b
1b
f4
d0
cc
e3
fe
00
02
09
11
05
04
05
ff
f4
e8
da
f1
00
0b
18
0c
0c
0c
04
10
e6
14
26
0b
ce
e4
f8
09
00
0c
08
06
ff
08
f6
f3
f0
ea
d6
e9
f4
ff
06
02
06
fd
06
10
f0
0b
30
1c
e3
fb
06
05
fb
0e
04
fc
f7
00
fe
fb
fa
f8
eb
f0
f4
f9
f4
f2
f3
f1
f7
0a
18
08
22
dd
ed
04
07
03
fc
fd
fc
f4
f5
fb
04
04
fd
fe
f6
f3
f3
fb
ea
fc
fe
ff
f7
f7
03
f8
f7
01
00
03
08
00
f2
fe
f6
f4
f3
f7
fa
05
01
fa
f5
fd
00
fb
ee
05
07
01
08
18
3d
f5
f3
1e
07
04
0d
ff
f3
fc
f7
fe
fb
fb
fe
ff
f7
fd
fd
f7
fd
ff
02
01
03
05
0c
27
3e
f7
fd
28
1f
0a
0d
f2
f3
fd
06
06
ff
fe
fc
fa
06
05
01
04
05
12
06
04
00
f8
fa
12
26
f6
f7
1b
2f
0a
08
09
0c
0e
0a
08
fd
05
ff
f7
04
07
08
03
01
06
f8
01
00
08
ee
f5
2a
08
28
02
1e
0d
0d
0f
09
0a
11
10
00
fb
0a
ff
0a
09
07
04
07
08
05
0b
15
12
fb
ef
10
fe
f5
f1
07
07
0e
09
02
07
05
04
03
03
06
07
04
07
04
07
07
06
04
09
0d
03
e6
e8
08
fe
f3
08
04
fe
03
fe
03
06
07
03
02
01
03
0b
09
0c
01
04
07
06
04
04
15
03
f0
0d
4e
ff
ff
21
0e
09
02
fe
00
ff
fc
fe
f8
f7
fe
05
02
04
04
fd
fd
fb
fd
fb
01
08
06
00
1d
13
1c
10
0d
0c
04
00
fc
fa
f6
ff
f7
f6
f9
fd
fd
02
05
fa
fb
f9
f8
f8
ff
0a
04
01
38
19
12
14
03
07
09
00
00
ff
fc
ff
00
f9
fd
fb
f7
f8
00
09
03
fe
f8
f9
fc
f9
f3
fa
1c
01
14
14
01
02
fa
f9
fd
03
08
fe
fe
03
05
07
02
0b
08
0b
10
0c
ff
f9
f0
fb
06
fb
f0
00
00
1a
16
fe
f8
02
ff
f8
0c
0c
15
18
10
07
0d
0a
03
fa
02
fc
fc
f0
f2
ee
f6
fb
f0
ff
ff
1d
24
09
07
18
fa
f4
0d
0d
1d
28
f8
05
05
04
09
ed
02
0f
f7
f3
f9
dd
cd
e6
f3
ff
fe
11
16
14
17
0d
00
02
24
21
01
00
00
fe
14
05
0f
1e
03
01
01
00
fe
fe
00
02
fe
02
fe
fe
02
00
02
fb
fa
fa
fb
f8
fe
01
01
01
ee
ec
f0
03
01
ef
e9
01
00
f9
f8
f6
f8
ff
01
15
2e
26
3b
0d
1e
15
17
f4
21
01
0a
f8
e0
e9
e8
de
c4
e3
fb
2a
07
ff
15
f7
d5
ff
ff
0f
0c
0e
1e
05
08
f3
eb
fc
09
12
16
0d
fd
05
02
0b
04
12
0f
22
12
08
11
0d
cd
ff
ef
f6
0b
09
09
10
13
0c
09
fb
ee
f7
08
ff
fc
12
0a
fc
00
13
10
0e
11
0e
02
0c
dd
21
e1
24
21
0a
0b
11
11
0d
07
00
f8
fb
0a
09
07
08
05
f6
f5
fe
03
0a
0d
11
1a
1a
0d
19
e2
0e
2e
10
10
16
1c
12
14
0e
03
ff
0c
0c
07
03
00
f9
f0
f8
f8
ff
fc
ff
10
13
14
15
1a
14
1e
15
0f
0f
04
0a
0b
0f
09
08
0b
11
00
f7
fe
f9
f1
00
01
ff
f8
fe
0b
05
ff
04
29
0b
03
17
0c
02
f8
0a
0e
11
0d
0c
0b
0d
04
07
08
fc
01
02
03
fa
fa
04
04
00
fd
1c
13
09
f5
0a
02
03
f9
09
0a
14
0c
0b
08
05
ff
fe
05
ff
02
ff
0a
02
02
00
ff
fb
dd
1a
0f
f4
02
1b
06
fb
ff
13
0b
14
13
15
0d
07
03
fa
fc
fd
f7
f9
fa
fa
fd
fc
fa
fc
e0
fe
16
16
24
0d
fd
fc
ff
0a
09
03
0a
10
0f
05
00
ff
fb
f7
f8
03
fa
ff
01
04
02
12
f8
0a
fa
12
13
04
fb
f5
f5
0a
0d
ff
04
00
fc
f3
f6
fb
fc
f8
fd
02
f8
ff
01
08
09
0e
05
ef
ff
ea
0f
01
ec
ee
fb
08
06
05
01
fd
f5
fc
f7
fd
fa
ed
f5
05
f4
09
0f
13
0d
ff
ec
e8
0f
e4
ef
f9
ec
f9
06
0f
02
fd
f8
ff
06
09
fb
fa
f5
ea
f6
02
01
0b
15
12
fd
ee
14
ec
1f
ce
eb
00
f9
00
08
03
fd
f4
f6
fb
06
02
ff
f8
f7
fa
09
12
0f
14
16
09
f7
e6
eb
f5
23
f3
f9
04
04
06
ff
f4
f8
fe
fe
02
09
03
0d
fa
06
11
1a
19
1b
0c
02
ff
f9
f0
fa
fa
14
f7
0d
08
08
05
fc
f7
f7
f8
f7
01
04
09
13
0c
0e
14
1f
19
19
0b
ff
f5
fb
eb
df
fa
00
f9
10
0d
0a
06
fb
fc
fb
ed
f2
04
03
09
0d
11
15
15
19
10
11
ff
06
05
fa
f1
fc
0f
e2
fe
16
0d
09
fe
f9
eb
eb
e7
eb
f3
f0
07
13
1d
17
06
03
04
04
00
fc
f4
ef
ff
10
00
0b
2a
09
02
0b
05
01
f1
e2
eb
f2
fd
fb
0f
1c
16
03
f4
fc
03
06
02
fe
ed
e7
11
08
00
23
0b
03
fe
00
0a
06
ef
e3
ec
f6
fb
fe
0c
17
15
04
fd
f8
f8
f8
fb
02
f9
f0
10
06
02
0e
ea
05
0f
02
fe
fe
f4
e8
e6
f4
fb
f9
06
0a
0a
01
fb
fc
f7
f2
f1
ed
f4
fe
14
23
18
eb
f7
19
0f
02
fa
fe
fc
f2
ee
f6
02
07
10
0c
03
ff
01
ff
04
ff
fb
fc
f0
ff
08
0f
17
0f
f5
05
fe
fb
01
fe
f3
f4
ed
ea
fb
0d
13
0e
fe
f3
fb
f9
fc
09
07
00
ff
fd
08
0b
00
0f
03
05
f9
f9
07
02
0a
06
f3
e5
f9
07
02
fc
fb
fb
f4
f5
ff
0c
15
0f
13
1c
1c
2f
01
01
1d
16
f8
fe
f8
f3
f9
03
ed
d9
f1
ff
f4
f5
f8
13
0a
05
0e
14
0e
19
1b
1e
f3
12
02
01
05
12
f2
e5
d1
c4
de
dc
e1
d1
b6
cd
d3
d8
01
19
07
f3
ec
05
db
01
0b
42
2e
37
01
02
fa
f8
fb
f9
01
fe
02
00
04
01
00
18
fe
ea
f8
f4
ed
fd
01
00
01
ff
02
02
02
02
ff
fe
ff
ff
fe
05
0a
0c
0e
0a
0c
05
ff
ff
02
ef
e6
f1
1a
fb
f9
f6
fe
ff
ea
ed
ed
f2
01
ff
04
12
2c
2d
25
15
0a
10
35
f8
fc
02
04
0f
1c
11
20
ff
f9
1a
ff
18
fc
15
0f
f7
01
fe
e9
fd
0e
19
06
11
1d
12
15
fd
ff
04
0e
1a
21
17
13
0c
14
0d
fb
f6
fb
f9
19
fa
00
ff
ef
ec
e0
f7
06
00
ff
03
02
0b
06
04
09
06
10
09
f9
f8
0c
f2
f2
f5
fb
ff
fe
f3
e0
fe
09
f0
ef
07
10
fb
fb
fa
fb
03
09
08
12
0b
0d
0c
f6
f9
03
f8
e9
f2
fa
fe
ea
0b
dd
01
f6
03
f0
f7
04
fe
fe
03
ff
02
07
0c
0c
0d
09
0a
ff
ff
05
fe
f8
fa
fd
0a
ff
09
e5
18
ea
0c
f9
fa
02
09
0b
04
00
f8
03
ff
03
0b
0e
07
00
f8
f7
f7
fa
f4
06
0b
00
00
18
26
de
f8
00
03
0e
12
0a
0b
0c
00
f9
01
ff
08
17
0f
05
ff
fe
f8
f2
fd
fc
f8
fd
2b
2e
17
ce
fb
fd
03
0c
0d
10
13
07
fd
fe
09
fa
fc
0a
05
f6
fd
07
04
fa
04
f8
08
05
18
2f
1a
03
06
01
07
07
10
0c
0b
04
02
0d
08
ff
00
03
02
03
02
05
05
02
fd
fc
05
10
0e
e7
1a
1e
14
fd
06
06
0e
ff
03
03
fe
12
08
0d
0f
06
00
f3
fe
fa
fb
f9
fa
ff
04
1d
f6
e1
28
fc
02
fd
06
10
04
fe
f8
fe
03
09
06
0e
04
03
00
f5
fd
00
02
0c
09
fc
fb
0e
29
fd
24
07
18
15
06
0f
0c
07
f8
f9
fd
02
0a
13
0e
0d
05
f5
f7
04
01
ff
fd
f5
f4
01
1c
01
20
fa
04
16
07
09
04
ff
01
06
07
0a
0b
18
11
0b
06
ed
ed
0b
fa
03
12
06
05
0c
18
ee
25
ec
ec
11
06
fd
02
fb
03
02
0c
08
05
0f
10
0a
fe
ec
ee
04
fa
01
11
0c
07
e9
c3
ee
2f
f2
08
01
fd
fc
0e
05
0b
0f
0e
10
18
17
19
0e
fe
e9
e3
f0
f0
f4
fb
ff
f8
e4
e1
01
2f
04
10
fd
04
06
0c
05
06
f6
05
0d
17
1f
15
06
e5
cd
b7
c8
e4
f8
f9
f4
f4
eb
0a
02
fe
09
f3
ec
fe
04
05
09
0a
09
09
0c
10
16
0d
f6
d9
9e
a5
df
ff
fa
f9
fa
fe
fb
00
ec
f6
06
f8
f2
fc
f6
01
ff
ff
09
08
05
0f
15
0a
dc
bb
99
c8
05
19
03
ff
fa
fb
ee
15
ff
eb
fc
f6
f3
fe
f4
f9
fd
03
02
00
06
10
03
e6
b2
b3
c4
ed
09
1f
06
fc
f5
02
fb
e7
01
00
0c
f7
ee
fd
fc
08
01
fd
00
fe
ff
fc
ee
d9
c4
c9
da
e9
f6
04
f8
f1
f0
ed
de
ed
ff
1a
06
f8
fd
08
0b
02
03
02
fe
01
00
f6
ee
e4
cd
ca
df
e7
ef
f7
f5
f2
f6
e9
e3
10
19
00
fe
f9
0d
14
02
05
0f
01
09
f4
f5
e4
e2
dd
d3
d2
db
ed
f3
f6
ee
f5
f0
ec
d0
f2
00
01
f1
06
01
13
05
02
f7
fc
03
f6
f2
e0
e3
df
cd
d4
d3
e7
f4
f2
f1
0a
04
fe
f1
04
01
02
f3
ff
f8
0e
00
f3
f4
f9
f9
ef
f9
f0
f2
e7
cd
d4
d7
ea
f1
ec
f9
07
06
fd
fe
ec
fe
00
27
1b
fe
ff
f5
ea
fb
06
05
f9
0f
f7
f0
df
c5
cd
cc
dc
c6
d0
e9
f3
fe
03
02
de
fe
fe
d7
19
29
0c
f7
ec
00
fe
10
f8
e8
cd
d7
dd
ce
d2
d3
e6
dc
d5
db
e8
0e
14
f8
de
fd
02
f2
ea
f8
0a
ff
01
00
e5
eb
fe
fe
e6
ff
fc
0b
0e
0d
08
02
02
fe
01
01
00
01
ff
fe
fe
00
ff
01
08
07
07
07
08
08
06
02
fe
01
02
02
fe
e3
e4
1a
1a
0f
12
ff
ff
fe
ff
fe
00
f8
cb
bc
cf
dd
ac
b5
d3
ee
fa
e8
fc
f0
ea
f8
f7
1c
fd
f0
ee
f6
ed
f4
0d
f2
fc
00
02
d7
d2
b0
c8
ca
af
af
d3
fd
04
01
12
18
13
07
10
0f
0a
0d
0a
14
08
0b
fa
ef
ec
ff
07
01
e0
bf
ce
cd
ca
bd
db
f8
00
f9
f3
fe
fd
f8
01
fe
08
04
0f
1c
0b
0c
0e
fc
e5
f1
fd
e2
e6
c2
bd
ba
cc
ce
d7
e1
ec
ee
e4
f0
f3
ed
f2
ed
fc
f4
fb
08
f8
f2
09
05
d8
e4
e5
cb
d4
bc
ac
bd
dc
e1
d9
df
e5
ea
f4
f5
fc
f3
fb
f4
fc
fc
fc
f9
f7
f5
04
fc
eb
fb
e7
d8
d5
be
ba
c8
c6
da
d5
e2
f1
e9
e4
e9
ee
f3
f5
f8
f0
ee
ef
ee
fe
fd
ff
fc
df
1b
ed
ed
db
d1
d7
d0
ba
ca
cb
cb
ee
e5
d7
db
e9
f2
ea
ed
ea
e7
ee
e6
ff
05
ff
02
2d
27
ef
d6
ec
ed
eb
d4
c4
ba
d4
cc
dd
d7
d7
e0
ea
f0
ec
f1
e9
e1
e8
e4
ed
f6
f6
e3
08
2c
e2
fd
09
07
fe
f6
e5
ed
e0
e1
e5
e9
ed
f1
f8
fb
f9
f6
f6
f8
f4
ec
f0
f0
ed
e9
e4
07
ed
15
16
fe
fa
03
f6
f1
e9
eb
f3
f5
00
05
0a
fd
fd
00
04
0f
07
ff
f2
00
f6
09
d9
f8
ff
03
20
05
01
12
0b
ff
ff
08
05
13
0c
10
06
03
06
0c
12
11
0b
ff
f4
f7
ea
04
f3
f8
02
26
2c
14
10
1b
11
03
14
17
09
14
0d
09
02
0b
14
16
18
10
09
07
03
e5
d6
f3
c2
f2
09
1c
08
1a
1a
1b
16
15
0e
0b
04
00
0d
09
05
0e
11
12
07
02
03
04
02
dc
d7
ec
e9
fc
00
fa
17
17
15
1c
1f
10
09
06
02
ff
06
12
0e
0e
16
11
05
07
ff
f7
ec
d2
d9
f1
bf
01
08
15
19
0c
0c
1b
13
09
02
06
02
02
04
0b
05
0f
15
09
0b
01
f4
ee
e2
ec
f2
f3
c6
01
05
11
23
0a
09
0b
09
0b
03
ff
fc
03
04
03
0c
0f
14
07
05
f8
fa
f3
ea
f0
f3
f0
d8
01
f7
ef
12
0b
0c
05
0e
06
fa
ff
00
fc
fa
fe
00
0c
0c
0d
01
fa
f7
f0
ed
fd
df
e5
f0
05
fc
e8
06
06
02
fe
00
03
ff
09
fe
f4
f3
fa
fd
02
05
03
03
01
fd
f1
ed
f4
f6
f4
ee
01
f2
ed
0e
03
09
fe
fa
fe
f7
f8
f8
ea
f4
fe
fe
01
05
05
fc
05
06
02
fe
f5
fa
0a
14
00
ea
33
14
f9
09
fb
01
fc
f8
03
fa
f7
fe
fb
fc
03
0b
14
03
0b
10
07
05
f6
f4
0d
42
02
d8
03
03
f2
fa
00
0d
0d
fa
01
05
fe
00
01
08
07
0a
08
0c
0b
0c
0f
12
f5
eb
0d
22
e4
ec
ff
08
f8
f8
fe
02
02
fe
07
ff
ff
06
0c
01
07
07
08
18
0f
09
0e
1b
0e
ff
01
14
02
f4
f8
fe
fe
02
f1
f6
f7
f8
00
fe
fe
00
fd
01
04
05
03
05
05
02
0d
21
16
09
ec
cf
ff
f0
ef
f7
f4
00
e9
fc
00
07
00
03
00
fe
fe
05
12
10
05
0b
16
12
18
3a
23
0c
e8
b7
fe
00
d6
dd
e2
f2
ea
f6
fb
00
0c
0c
ff
0e
0b
0f
08
fd
0c
0f
14
09
08
1e
11
f9
fa
f9
02
02
02
bd
c1
fc
1b
01
0f
fe
f8
16
0d
18
10
1f
18
00
0f
fe
0b
11
fe
11
09
cd
e1
fd
ff
02
02
00
02
fe
12
ff
01
ff
01
00
fe
00
fe
07
08
01
fb
06
fe
fe
00
00
fe
02
00
fe
00
fe
ff
01
ff
f0
ec
e9
eb
ea
ed
ed
01
02
02
fd
0e
12
04
1c
01
ff
01
07
0f
0e
0e
0c
01
01
1b
25
07
0e
ec
f0
12
fc
29
05
ff
fe
19
0f
14
29
22
15
13
1e
16
09
fa
e9
18
11
02
ff
01
05
0e
07
e9
f9
0f
05
11
00
fb
f4
01
f5
ff
ff
ff
ff
00
10
11
09
ff
06
13
f1
02
0c
ff
11
05
fc
fb
05
01
01
0c
05
fd
03
09
07
06
06
0b
04
02
05
0b
06
0b
10
00
04
07
f4
f1
0e
05
06
06
01
fe
03
09
fd
ff
07
0b
10
06
06
07
01
05
06
03
f7
fd
02
f7
f7
e5
01
e2
ff
fd
04
09
0f
fe
03
02
ff
fc
ff
02
14
0d
06
03
04
07
05
06
fc
01
ff
f5
f8
ea
14
01
07
02
00
0b
0b
fc
f4
05
fb
fe
fd
01
09
10
0a
0d
07
0a
00
09
04
fc
02
fa
11
e1
13
0a
02
0c
ff
02
0c
03
01
0a
ff
fc
fe
02
06
02
08
0c
02
05
01
04
02
06
10
fa
11
e8
1f
09
0c
0c
fa
03
08
06
ff
01
fe
fa
fa
ff
03
00
0c
0a
01
fe
00
fd
0e
06
06
fe
1f
e8
1d
f7
05
0a
05
04
03
00
02
04
03
07
00
02
0d
03
09
06
03
07
09
04
04
f7
05
1b
f6
08
ff
0c
ef
07
ff
fb
fe
fa
fb
00
01
ff
fe
06
0b
09
0b
08
0a
0a
04
0f
08
f9
04
10
f3
17
eb
08
fd
11
06
ff
fd
f6
fb
ff
02
01
ff
05
13
12
11
13
10
11
0f
19
1e
11
10
20
12
fc
e8
f6
f3
0c
07
07
01
04
07
04
09
0a
0b
10
16
18
1d
1a
23
22
1a
18
1d
13
0f
1a
00
fa
f6
13
0b
09
0a
05
0f
10
10
0b
11
12
10
17
12
18
1e
22
27
29
1e
1e
28
1f
13
12
e4
fe
15
08
01
fd
fe
08
10
0c
07
09
15
15
13
11
14
11
1a
18
16
10
07
11
15
09
06
07
d1
00
fc
ef
f8
f6
ff
f8
fb
f8
ee
fb
02
02
01
00
fd
ff
f3
ee
eb
f2
e7
ec
eb
e1
e4
da
b9
ff
fc
f0
f5
df
f0
e2
e8
e5
ec
e5
e8
e6
ea
ee
e1
e5
da
d2
e3
e7
cc
c7
ca
c4
bc
b4
cf
ff
ec
e5
ee
d7
ec
e3
e6
e2
e8
e7
dc
dd
dc
e0
dd
db
d8
cc
d4
db
d4
cd
cb
bd
b3
bd
f4
01
e1
d8
df
e5
f7
f0
e6
e7
e8
f0
e9
e0
df
e4
e5
db
e5
e3
d9
df
df
db
e4
e2
d7
e4
e3
02
e3
fb
f9
fa
fc
fc
f8
f7
f5
fa
f2
f8
eb
f2
ea
e9
fc
f6
f2
ef
ed
ed
f7
03
fa
f3
cb
00
f1
e9
0a
0f
fb
fe
03
04
05
04
04
00
ff
01
fd
01
06
ff
06
02
f9
fb
ff
03
f6
e4
ed
02
1f
1a
0d
07
02
06
ff
fc
fd
fe
fd
fb
ff
08
02
ff
fe
fa
05
06
02
08
01
08
01
07
30
0c
17
11
08
f8
02
03
ff
fe
00
00
fe
03
fa
05
ff
00
fd
f8
ff
fe
fa
fa
ff
03
03
0e
0c
ff
03
05
0b
f1
ff
0f
ff
fa
fb
fc
fc
02
ff
03
05
fb
01
fb
00
07
ff
01
05
0b
0b
01
fb
01
00
f1
01
f3
ec
02
0f
06
02
0b
09
06
fc
01
06
ff
03
0a
10
0f
01
09
05
05
08
f1
05
00
fe
0d
16
0c
f6
f5
ff
08
0b
f5
ee
f4
f2
fd
05
00
fa
f2
fb
ff
f8
ee
de
e1
eb
e5
fd
00
00
fd
29
37
10
0c
00
00
2d
0f
00
fd
0c
17
09
f5
e5
f5
fa
f9
d5
e9
e5
e9
fe
ed
db
01
fe
08
0c
0e
04
05
01
00
12
0a
ff
00
1b
02
e9
ec
f0
01
ef
ff
fe
00
fe
00
00
01
02
00
00
00
ff
02
f2
e9
ed
eb
eb
ec
f0
fe
ff
fe
0d
1f
19
2b
27
f0
ef
02
01
fd
fc
fd
00
01
01
de
ef
0c
18
e9
f4
04
1f
f8
f4
01
10
0c
13
18
24
03
1d
0c
e5
f8
0e
14
00
14
1d
fe
ff
d8
f9
0f
0b
ee
ff
fc
08
08
02
f7
fb
fa
08
13
03
04
0a
00
fb
fb
08
f5
f6
f5
0a
01
14
fe
05
0a
09
fa
f6
ef
f1
fe
f8
ff
04
03
11
0a
04
08
fa
f4
00
f9
fb
f1
e7
e3
fc
0c
35
0b
f1
0b
06
05
fc
f2
ed
f6
f6
f9
07
03
05
fa
00
00
fd
f6
fe
fa
f3
f8
e7
f5
f5
1e
41
19
fc
0f
05
ff
fb
f6
ee
e9
f4
fe
03
fd
04
00
08
04
00
fd
fa
fa
00
05
f4
fb
e9
15
12
1e
09
0f
fc
fb
fb
f8
f2
ef
fa
fb
fb
f5
04
fc
05
fd
fd
f5
f5
fb
04
00
fd
01
02
ed
12
14
00
12
03
06
09
fc
f9
03
fb
f9
ff
00
fe
f7
03
01
f2
ef
ee
01
04
fb
05
03
dd
d0
1d
23
02
09
0c
0f
12
02
08
0a
fc
f4
01
02
03
00
fb
f7
ec
f6
f0
f4
fc
05
08
02
f5
d5
1b
ff
0a
01
08
09
0c
fe
09
02
f4
f3
00
fa
f3
f1
f4
ff
fb
fb
f1
f7
06
0a
f7
fc
f4
14
f8
22
08
01
0a
03
03
06
02
04
ff
06
02
fc
f0
f6
01
0c
fb
ef
f3
f7
ff
f5
eb
ee
0b
08
ed
2b
07
00
07
fc
02
09
0b
0b
0e
04
03
fd
f3
f4
07
15
fd
ed
ef
f3
fa
f5
f0
ed
dc
0a
04
02
1d
0d
0a
fe
09
10
0b
0d
16
ff
fe
01
04
02
0a
07
f8
ef
eb
f1
f7
ec
f1
eb
ec
0d
1e
20
3b
21
18
0e
12
09
05
07
0b
01
01
03
10
07
09
fe
fc
e8
ec
ef
ed
e1
df
db
e2
19
2e
0c
18
16
12
0b
0f
0b
05
06
ff
06
0f
04
09
12
13
11
fd
eb
ed
f2
e7
e3
da
de
e5
17
35
f0
ff
14
0e
0e
10
0d
0a
fe
fc
06
12
08
0e
0d
0b
0a
fa
f6
f8
fa
ee
e2
e2
e6
ed
0e
22
f1
fc
11
03
0a
0c
04
02
0a
08
0a
15
14
07
0e
0b
0a
07
09
fe
00
f1
f0
f8
f4
03
0a
25
ea
01
08
05
01
fe
03
0a
04
0e
0c
10
10
0c
10
07
0b
0e
10
09
06
f9
f3
09
0c
22
1c
1f
f0
fd
0a
03
02
03
00
05
08
1a
13
12
10
13
15
16
15
12
0f
09
0b
08
fe
14
0d
0f
02
31
f6
08
06
fb
ff
fc
02
08
0f
1a
0f
0c
11
14
1f
15
12
05
07
07
13
14
10
02
fa
10
fe
36
dd
03
01
fd
04
f7
05
fe
04
10
0c
0b
09
0e
11
0d
08
08
0a
0f
1b
16
0a
ff
f7
d4
00
24
fa
ee
f4
fb
07
fd
fd
fa
04
0a
0b
0d
02
08
05
06
09
0a
0e
17
15
0c
0a
06
09
0c
05
19
f8
f6
ee
f2
02
fb
fe
03
08
02
03
08
01
07
01
02
08
03
08
11
12
0c
0a
01
1a
2b
0f
1d
0a
0b
01
f9
fa
f6
00
fe
fa
04
f9
fb
fd
f7
03
fa
fb
05
08
11
18
0b
17
11
0d
29
00
1b
10
fb
10
fc
01
f9
fa
f5
fb
0f
01
f6
f4
f7
fe
f0
f4
fd
01
10
0f
07
21
27
18
2a
00
00
0f
14
2f
16
11
03
04
08
05
02
01
f0
fb
fe
01
f2
fa
0a
13
11
0a
10
22
33
24
2f
01
ff
3f
17
1f
14
fe
fa
fd
21
17
ec
fc
02
fc
fa
f6
f5
09
08
ef
f0
04
1c
14
41
46
3a
01
01
02
fc
00
0a
05
02
02
1d
1b
ff
01
e1
ff
f1
ec
f2
fc
ec
ff
01
00
00
00
01
ff
02
ff
01
fe
ff
02
f5
ef
ed
ed
ed
ec
f5
01
02
02
0c
1c
1b
1d
34
18
1a
0a
0c
14
10
13
0d
02
fe
e5
f6
0f
1b
0c
e7
f6
f5
ea
06
fe
16
09
12
26
49
2e
19
fb
f8
0c
12
fa
e3
ee
ff
ff
02
dc
15
10
0a
09
fe
0a
0b
08
0c
00
07
fe
fe
13
18
0b
06
00
fd
ff
17
0f
04
10
0d
ff
ff
de
f6
fd
f3
f0
f1
ee
00
01
f2
f9
03
fd
ff
0c
05
ff
00
0a
0c
07
0d
11
19
1a
0c
ec
15
f9
e8
eb
e6
08
fb
fa
fe
01
fb
f5
fb
fc
fe
fe
f1
f4
fa
fa
0b
06
05
14
1c
1d
fa
e8
30
20
0c
f7
f9
04
f2
f8
f5
01
06
fa
08
0a
fc
f6
ed
f5
f4
f5
f9
fe
03
0a
07
10
fc
f4
ee
fb
07
08
0a
0e
01
01
ff
06
11
01
fe
fc
01
fc
fc
f3
fc
f5
fb
03
00
08
07
0c
16
1b
d9
00
0c
03
05
06
fd
f1
f6
03
0b
fb
ff
fc
fd
05
0b
03
ff
f9
ff
03
ff
fa
f5
14
1f
0f
d7
f8
13
06
02
01
f1
f9
02
04
08
03
04
09
01
11
16
05
fd
03
fd
fd
f7
fc
f2
0c
1e
1a
fe
10
06
0b
0b
09
00
04
fb
00
0a
ff
f8
ff
ff
07
08
08
01
fa
f5
f5
f7
fa
fb
fd
d6
1a
fe
10
1d
23
1d
11
08
00
f5
00
07
08
f9
f9
07
04
09
fe
00
f1
f2
ea
ee
e3
e1
e5
c7
0c
f3
20
15
18
0f
10
0d
fe
f6
03
02
02
09
0a
fd
fd
04
fe
fe
01
f3
eb
f6
eb
f2
ea
ef
14
f8
4c
23
15
0a
0a
0f
ff
f8
04
00
fd
04
fb
fa
fa
ff
08
0b
09
03
00
f9
f0
06
e6
e5
19
ed
3c
12
02
01
03
06
fd
fd
0a
07
fb
00
0a
0c
0b
0b
0d
19
10
0c
08
fd
05
07
f4
e3
fb
f3
09
02
fe
00
04
fd
07
0b
19
0a
05
07
1c
14
16
17
1c
1d
1c
13
0d
07
06
01
fc
ed
f5
01
ed
06
f8
fe
fd
02
15
12
0f
fc
0b
11
14
18
0e
18
14
1c
1c
12
0d
14
08
01
07
0e
09
01
ff
09
fa
fe
fd
05
06
06
05
fb
05
06
03
04
05
0f
0d
0a
0c
fe
09
06
fe
f8
07
02
09
f7
ed
06
fd
f9
00
02
08
02
06
ff
fd
fa
eb
e7
f5
06
07
10
08
fe
00
07
fb
05
10
07
0a
1f
0e
0e
00
f5
fc
0c
03
f9
f8
f9
f4
f3
e7
ef
fe
0d
13
18
0f
03
04
02
02
03
0f
06
00
11
e7
0f
01
f4
f5
fd
f9
f8
f6
fa
ff
f3
ed
fa
0d
08
0e
10
10
0b
06
02
ff
02
f4
1e
01
da
ef
fe
ff
f9
fc
f7
ff
ee
f1
f8
fd
f9
fe
f7
06
0c
0c
0d
06
02
fb
fb
fb
05
f7
0b
02
ef
03
00
f6
fa
fa
f6
f0
f3
fb
04
05
ff
f4
f7
01
05
08
0f
03
00
fa
01
0c
14
0e
1e
f6
13
eb
e9
ef
06
fd
fa
f7
f6
fb
ff
03
02
03
07
09
07
02
01
02
fd
fc
fb
10
0b
f8
0d
18
11
fc
00
f3
fa
f7
04
03
fc
f8
00
00
05
05
07
14
0f
0a
09
00
f8
f1
f6
11
05
e1
d8
01
0d
ea
f5
f1
eb
eb
f8
08
fe
f5
ff
f9
10
13
16
1d
17
15
0b
fe
ff
f6
fd
12
05
d0
d1
fe
02
e9
ef
e1
c5
e6
ed
fe
17
14
07
16
20
31
2c
2f
2f
2d
10
0e
0f
09
09
20
09
d8
dc
fe
01
17
db
d1
e6
f2
f8
f7
20
24
12
11
1e
3a
3d
23
2d
52
0d
df
c8
da
dc
dc
eb
cd
c7
00
fe
0d
12
16
20
0c
01
fe
27
21
fe
02
e5
00
08
f0
f1
0a
f0
02
00
ff
ff
00
fe
02
ff
ff
fe
01
fe
02
0b
13
10
13
14
14
11
fe
02
01
fe
00
ff
f8
f6
ff
00
02
00
fe
fd
fb
fc
02
01
0b
29
20
1e
f1
ee
ef
f0
de
d4
d2
e4
db
ca
b9
c6
e2
d1
ed
f6
e0
e1
f2
d0
df
f4
02
ff
fb
12
05
15
ec
db
f1
ee
f5
fa
f1
f9
fb
f0
f9
00
03
e9
f1
e4
e4
e5
e5
cf
df
fe
01
05
e2
e3
e6
03
f9
e9
f1
f5
f7
f4
f1
f6
f6
ee
fd
ff
fa
f2
e9
ef
ed
ef
e3
de
f0
f8
1b
2e
ff
d8
e5
f7
f8
f4
f5
ef
e6
f4
f0
fa
f9
ed
fc
f7
ef
f1
f2
ea
f1
e3
d7
d7
eb
f7
27
28
16
fc
f1
ea
ec
ed
f4
f2
ef
f9
ed
ed
f7
fa
f6
ec
f2
ef
f0
e7
df
dc
d8
d7
e8
07
17
0a
fd
1a
f1
e9
f6
f3
f5
f7
f5
f6
f4
ec
f8
f5
ef
e8
f8
f6
ef
ea
e7
df
e8
ef
fa
de
1e
fa
0a
31
03
f6
02
02
f9
f2
fc
f9
fa
fb
fd
f6
f9
f9
f8
ed
e3
e1
e2
f1
fe
08
25
06
20
07
1b
1d
fe
f9
06
ff
f4
f2
f0
e7
f5
f2
ea
f8
f2
e9
d3
ce
d8
eb
f9
01
14
1e
13
e9
29
1a
13
05
0d
07
04
06
03
03
f9
f5
f8
f6
f0
f7
e9
e1
da
e6
ef
09
0e
16
23
1c
0b
f4
1c
19
0f
01
11
0a
ff
01
04
09
fd
fa
00
03
04
00
f7
f2
f0
02
0a
10
12
16
15
15
24
2c
08
14
3c
09
04
f6
f1
ef
fa
06
02
04
05
01
01
f9
f0
fb
08
1f
16
11
0b
12
1a
0a
07
34
ff
1b
2b
18
06
f9
f9
fd
f2
fd
00
fd
fd
f5
fe
fc
f9
03
0a
22
13
12
10
1a
19
0e
00
08
0c
1f
1a
0e
fe
ff
0d
04
fb
fc
fd
fb
fe
fa
05
09
07
11
11
0d
0c
0c
0d
1b
1b
0c
12
29
22
1d
1a
04
05
03
04
04
00
01
03
03
04
f9
00
04
07
11
07
03
04
0e
0c
12
11
05
08
19
1d
26
08
04
f9
f4
fb
03
f6
04
05
07
03
01
0a
14
0c
0d
08
fb
fa
fe
06
04
06
0c
0e
0e
18
2b
1b
02
fa
f6
06
02
f5
fc
00
04
08
00
08
0c
10
0a
03
f6
f1
f1
00
fd
f8
03
04
14
19
2c
18
0b
03
02
00
ff
fa
06
0a
0a
09
08
0e
02
06
03
fd
f6
e8
ea
f7
fb
f9
0b
06
0d
22
27
35
09
03
f6
f8
05
fe
05
0a
09
06
fc
07
fa
fb
00
f9
f8
00
f9
ec
f2
f3
03
13
fe
01
29
1d
05
fd
f5
f8
06
06
0b
05
0d
0d
07
05
ff
f9
fc
f9
fc
0a
02
f2
ed
f4
14
1c
1c
00
2f
15
04
fe
02
0f
0a
04
02
06
11
12
10
10
0a
00
04
06
06
0a
05
ff
f3
f0
02
13
fe
00
15
ee
06
04
06
0e
0b
09
11
13
0f
03
0b
09
0d
0b
08
07
06
08
fa
03
f4
ed
fb
fc
eb
f2
06
18
23
12
0b
07
06
02
06
05
07
06
0a
0c
0f
0c
02
02
01
06
fb
fa
05
02
02
fb
ea
ff
e4
01
2e
12
0b
04
fc
00
04
09
00
0e
05
0c
0d
0f
07
01
f7
fb
fe
fd
03
0e
08
05
fc
01
e4
e0
f9
09
14
00
fa
fd
fb
ff
0b
0c
06
11
0d
0a
11
04
f1
f3
00
ff
04
06
f5
e4
03
ff
fe
e7
db
08
24
16
f8
f8
02
05
13
1d
08
19
17
14
0c
03
04
05
fa
03
f8
e9
f3
ed
14
00
01
0b
f5
0a
0b
fb
ea
e9
f2
d8
d4
ed
dc
fa
0e
01
f0
01
26
00
d3
df
f4
fe
1e
1a
17
fe
fe
fb
fc
f9
f9
fe
fe
02
ff
fd
fe
00
e5
01
0e
11
0e
0e
10
fe
00
02
00
fe
01
fe
02
01
fe
ff
ff
01
04
04
02
01
02
00
ff
01
02
01
ff
17
1a
1d
16
04
08
00
fe
11
0f
13
0d
01
00
f8
e1
fe
09
d5
be
df
ed
e5
ca
d8
e6
e3
f3
00
e8
17
35
13
10
14
f9
f8
19
1b
f8
fe
02
c6
bd
c7
e2
b9
9d
c4
c7
d8
f3
e0
e2
e3
f0
f3
e1
ee
f5
e4
d6
e9
e1
e5
fc
1c
09
fe
05
fc
cf
cf
e7
d5
d6
e8
da
da
e4
ed
e8
e1
e3
e2
db
e6
e4
e7
e3
e7
e5
d7
ed
0d
18
fc
db
fa
e2
e7
f9
f0
f4
f7
ec
f5
f2
f1
eb
e9
e8
ec
ee
ec
f0
fd
f1
eb
ea
f0
f1
e4
03
ea
d4
ee
e3
e6
f8
01
ed
f3
fb
ff
fc
f8
f3
f3
f6
f5
fb
f8
f8
00
fa
f1
f7
fe
f8
de
f1
eb
ce
e0
e8
e2
f0
ef
e9
e9
f8
f3
f5
f9
f7
f8
fc
00
03
fd
f5
02
00
fe
00
0a
01
f1
06
f4
d4
cf
02
ee
ee
ef
ef
ed
01
fa
01
09
08
0b
09
0a
0b
0a
02
0d
0b
08
0c
0a
fe
ff
27
2e
e3
e0
fe
f8
03
01
05
05
05
08
13
16
16
1a
1a
0c
0b
18
0c
0e
0d
0b
17
0f
00
fc
17
2d
da
d5
f9
ff
06
07
14
16
14
1b
1c
19
16
13
17
10
18
14
09
15
0d
06
13
0a
00
09
e5
f8
fd
db
ec
f7
04
07
18
1c
1c
1d
11
0d
0e
0e
14
0e
12
12
0c
0f
06
07
12
0f
03
f3
d4
f7
07
d3
05
06
0c
12
11
12
0d
19
08
05
05
0c
10
ff
0a
0b
03
02
01
01
05
ff
04
05
f7
f1
ee
de
06
1a
1d
18
0c
0e
09
0e
04
02
07
07
01
fe
06
07
05
08
02
06
00
f8
f5
f5
ee
f4
ea
21
13
18
1d
18
12
09
06
0d
08
fc
04
05
fd
04
06
06
11
08
06
08
03
fc
02
f4
ff
05
c0
0a
0f
0c
17
12
0d
fe
ff
11
0c
05
02
02
04
06
03
03
11
10
05
0c
fb
fd
05
fa
e0
06
bd
ee
01
03
0a
04
fc
f2
f1
f8
04
fe
ff
fd
ff
06
04
fd
0c
0a
00
ff
01
fc
00
0a
ed
01
ba
e9
fd
f5
ff
fc
f6
eb
ec
e4
f4
f4
fc
f9
f7
f0
f7
04
04
ff
fa
f2
fa
03
10
12
01
02
e6
f8
f9
f5
fd
f6
01
f4
f8
f0
f8
fe
fc
f7
f5
f6
fe
ff
fa
f7
ed
f7
fe
04
02
15
11
f4
f1
de
da
ef
f0
fb
fe
fc
fc
fb
02
04
fb
fa
fd
ff
f7
fe
fd
f9
fb
03
09
09
02
fd
2a
02
08
f1
ed
fc
f2
fe
01
ff
06
ff
07
04
fd
01
02
ff
fd
03
09
01
05
05
02
ff
0e
ed
ec
01
17
1d
08
fa
f2
f8
f8
fd
01
fa
04
ff
02
02
03
fd
fc
03
04
07
07
07
08
0d
0a
e6
cf
02
0f
dd
ff
fa
fe
01
00
fe
fe
ff
fe
fb
01
fe
02
02
03
02
f9
ff
07
01
08
09
ea
d8
b6
ef
f5
1d
02
f8
f6
01
03
fc
f9
f4
f8
06
0c
08
fd
fd
02
02
f8
05
15
04
01
ff
e4
d0
ac
fb
08
fd
e7
f4
fb
fe
04
05
01
f9
fb
04
12
0b
0a
06
08
ff
fc
06
0e
fb
04
fb
e4
cc
b5
01
06
0d
07
00
0a
fe
f5
fc
fe
ff
fd
f5
f7
00
fb
02
06
f4
03
fd
f8
ef
f6
e3
d6
f2
dc
ff
01
2c
20
13
1c
24
fc
f4
f2
03
01
fa
eb
f1
e6
e9
f4
ee
fa
e5
eb
e8
f2
ea
f3
0e
0d
00
01
fb
04
f2
fd
24
1a
0e
0a
06
09
fd
e8
db
e2
d3
e7
ee
17
20
21
20
1a
0f
05
04
ef
ff
00
0b
12
13
19
ff
ff
00
0b
eb
01
fe
e3
00
00
03
01
01
03
02
ff
02
02
fe
02
ff
02
00
fe
fe
ff
01
01
ff
ff
01
00
02
01
fe
00
ff
04
17
14
12
0a
14
12
05
05
ff
ff
02
00
ff
01
07
1b
0a
fd
fb
0e
ff
f7
f7
19
1a
fd
11
1a
fe
e8
0a
19
2e
00
fb
ea
0d
00
e4
0b
00
02
10
01
04
11
1b
2f
0d
ff
07
07
04
f9
fe
0a
03
f7
f4
f9
0d
0c
ff
f4
00
0d
e6
e1
01
fd
08
02
f2
07
03
08
04
f0
09
0c
05
f2
04
0f
0e
03
f3
ee
03
04
01
fe
f3
03
03
18
25
f5
19
10
e6
fe
ef
e7
f6
01
03
05
01
fe
06
0f
0c
03
01
04
08
00
0a
fe
f0
01
10
0e
2c
e8
21
09
f3
f7
ee
f0
f9
05
fb
06
02
05
ff
05
03
ff
01
02
03
0a
0b
fc
f5
04
13
00
18
ee
f1
0a
00
f8
f9
fb
fa
f5
f7
fe
fe
01
08
08
fd
03
fe
fd
00
06
ff
fd
fb
0b
08
ff
ee
f9
ec
f3
f8
f5
f7
f5
fc
fa
f9
f6
ff
03
09
ff
f4
f0
f9
fb
f8
fd
02
07
05
0b
0b
f4
e9
fb
e6
fa
fe
03
fa
f8
f5
01
0a
06
04
f8
01
01
fa
f5
ff
f9
f8
f9
f2
fb
ff
fe
05
00
f0
f4
e1
06
03
fe
ff
fd
f6
05
09
0a
05
ff
ff
fd
f5
f0
ed
e8
ef
f6
fe
f4
fa
f4
05
2b
13
eb
d5
fb
fa
f9
fb
fa
01
18
17
10
fe
03
fe
f7
fb
fe
00
fc
fd
03
fb
f9
fa
f0
16
4d
0c
d9
e6
00
01
03
09
06
11
1d
16
0e
07
ff
fc
fb
fe
00
fb
00
06
08
01
00
fa
fa
f8
07
01
e6
1a
09
0e
0b
11
11
19
19
11
0c
07
fe
fe
01
ff
fc
fd
fd
06
ff
01
f7
03
ff
08
43
0f
1b
04
1d
1e
1a
1b
19
16
11
0d
02
fa
f9
f8
f7
f7
fa
01
01
06
fb
f3
f1
03
ff
09
07
03
e6
2a
18
0f
17
22
1a
19
18
06
f1
ef
eb
f7
fb
ff
fb
08
ff
f7
ed
f4
f0
00
00
fd
01
ff
e3
14
00
19
1c
26
22
1e
18
ff
f0
ec
ea
f3
fc
0f
06
ff
f6
f0
f1
fe
f8
fe
04
ec
da
1b
dd
15
05
14
15
20
1f
15
15
09
f8
ed
ec
f6
fc
07
09
00
fc
f9
fd
fe
ff
03
02
f8
db
1b
f6
12
ee
0a
0f
1e
17
12
0f
05
ea
da
e0
e8
f9
01
00
fa
fe
fb
f9
f7
f6
f8
e7
dd
dd
fe
f4
f3
f8
0a
15
17
10
10
13
0e
f0
dc
e3
eb
fa
08
fb
fc
f9
f8
fa
fa
f0
ee
db
c0
b2
fe
ea
ea
fd
0d
15
17
10
17
11
0e
f3
da
e5
f4
05
05
fd
03
01
01
fa
f7
f6
f5
e8
04
08
fe
f3
fa
0c
1c
1a
10
14
17
15
05
f4
ed
f2
fe
0e
09
02
09
02
02
02
fb
f3
fa
fd
0e
15
fe
fc
0a
17
0d
0c
0d
0f
11
15
0b
01
ef
f8
ff
ff
f9
ff
00
fa
00
ff
fd
00
fa
ff
fe
ea
01
05
f9
10
10
0a
15
0b
0e
0a
09
04
f7
fd
fc
ff
01
ff
02
05
fd
03
fb
ff
f9
f6
e7
ec
00
01
de
07
1d
0f
0d
0f
14
0b
08
03
f3
fb
08
07
0d
0b
03
06
00
0b
10
0d
fb
f3
e0
13
ff
01
e7
01
13
04
0b
02
0b
0a
03
03
f6
ed
fd
03
0a
04
f2
fc
03
ff
06
fa
f5
f3
f2
fe
01
ff
dd
f2
0e
14
04
f2
f8
03
05
f8
f1
ef
ed
f8
06
04
fd
fa
0b
fa
fa
ff
de
e9
0d
09
ff
01
28
db
f6
f8
19
08
01
07
1a
0a
06
08
f8
0e
f6
f5
fd
0d
17
16
10
07
cc
dd
fe
24
02
ff
fe
fe
00
ff
06
00
01
17
15
01
00
01
01
04
03
f6
f0
03
fe
ff
00
00
fe
fe
02
00
01
02
02
01
01
f7
f1
ef
f1
f3
f3
f6
fe
01
fe
fe
e9
e8
ec
0a
e4
e5
f1
eb
fd
fa
fd
fa
fe
01
e9
e0
e1
23
fe
e9
fd
0b
0e
ef
f8
0b
f2
02
0e
df
fd
10
f6
f9
05
08
0a
28
1e
fa
fe
fe
f5
05
14
07
f5
0d
03
01
03
03
ff
13
1e
0d
12
11
08
08
ff
ff
08
12
0b
0d
16
0a
02
fc
f3
11
05
f7
fa
fa
01
f6
f4
08
fc
02
09
02
02
04
02
01
07
0b
04
0a
08
fe
04
f7
f2
00
0c
05
ed
f1
fc
eb
f9
02
07
01
f8
01
f8
f9
fd
06
f8
f6
07
fb
f4
f4
ea
f3
00
ee
09
08
26
14
f2
f8
fa
eb
fe
fd
fa
01
fb
fa
f5
04
05
fc
f7
00
0b
fe
fa
fd
fb
f4
0e
ee
f1
fa
0b
f4
f8
ff
03
fa
ff
f5
fc
04
02
f8
fe
04
fc
fc
fa
07
05
f8
f3
fc
fb
ec
04
f1
0b
ed
09
e9
ec
fb
01
fd
fc
fb
09
10
07
0a
03
fe
02
03
01
03
02
f8
f6
f7
f0
f7
05
e4
e1
ed
1e
f9
f5
0a
07
07
08
06
07
0f
0b
05
03
01
fa
f2
f2
f8
f4
ff
f8
f9
f5
03
07
d8
e2
08
ea
fe
fa
fa
ff
01
04
03
ff
0c
07
04
08
ff
f3
eb
f3
ec
ee
fe
f2
ef
f6
03
07
f2
f7
35
05
07
f6
f6
01
f7
01
05
f7
07
0d
0b
01
01
fd
f8
f4
f5
ff
03
00
f3
fc
08
00
f0
f8
25
0f
11
f1
fe
ff
f6
ff
fe
f0
fa
15
07
0a
0f
02
fc
f3
f9
fa
04
0b
00
02
0a
f9
ca
f7
21
1a
13
f7
fd
f6
e9
ec
ee
f7
ff
10
05
13
11
03
f7
ee
f2
fd
f2
03
0b
09
0d
00
f4
f5
17
f9
fc
03
01
fe
f2
eb
f5
f6
fa
fe
09
0f
15
01
ed
ef
00
04
fc
0a
0e
0d
04
06
17
f0
17
f4
ef
02
07
00
f5
f2
f6
f1
fe
fe
0c
1b
17
fe
f7
fd
0d
06
01
11
16
0e
13
06
2b
f0
1a
0e
fe
ff
fd
fe
ff
fd
f2
fd
fd
fc
10
18
07
00
fd
02
11
12
12
12
13
04
04
f8
ff
02
0b
0b
10
08
fc
ff
04
03
fa
02
f9
fd
12
0f
02
f5
f4
03
15
15
15
0d
06
00
10
05
dd
00
00
15
11
0c
fe
00
0a
06
f9
f9
f8
03
0a
04
eb
df
f6
1c
20
1a
0f
07
00
03
03
f9
e2
f2
05
09
06
11
fe
fc
01
04
fa
fe
f3
f3
fa
eb
d1
e1
0c
22
24
16
0e
0b
06
01
f2
f5
e2
00
26
04
fc
05
00
fe
03
02
06
05
f9
f3
fb
da
cb
df
07
1f
22
18
0d
14
0d
ff
f7
17
06
01
0f
fc
ff
f9
04
06
05
09
0d
0b
06
05
03
d1
c4
e5
02
11
13
10
15
19
11
11
f9
ff
f3
fe
f7
f6
0c
fc
03
ff
01
08
09
0c
0b
0c
f0
c9
ce
e7
09
0d
09
0b
10
11
0d
0e
fc
02
12
1a
e4
f1
07
01
fa
05
0e
09
06
09
09
00
e3
d4
d6
f9
0e
09
07
05
11
12
12
15
0a
1a
2d
1b
0b
e4
d9
ee
ec
06
0b
01
01
02
02
f4
e9
e4
e6
00
03
fe
05
01
16
1b
10
10
24
2d
50
fe
0a
ef
f5
f3
e8
f0
f0
e9
f2
f2
ed
e7
e0
dc
e9
f9
f4
ef
f4
f3
fd
f3
f0
01
20
20
15
fe
00
f6
06
07
fd
fb
f6
ec
e7
e5
ec
ed
f9
ef
eb
f4
f7
ed
f5
07
fa
ee
14
21
27
12
15
ff
ff
08
ff
10
04
fd
f1
e8
f1
07
ed
f8
05
e2
de
f2
f7
ee
0d
0d
20
1b
3b
43
32
29
2a
fe
02
fc
fc
fb
ff
eb
01
00
ec
ff
01
02
e2
01
f5
ee
f0
f0
f1
fe
ff
fd
fe
fe
ff
ff
00
00
ff
fe
ff
00
f4
ef
f0
ef
ef
f0
f2
fe
ff
ff
ee
e1
e3
d8
e7
01
ff
f0
ef
fd
fe
ff
01
ff
00
e3
e0
e2
f5
db
df
d1
02
de
c5
d5
fb
f8
00
e5
ed
fd
f8
f8
1e
fd
ce
e3
00
fe
fe
ff
02
ec
06
0c
f7
ed
e8
dd
fa
0d
f3
e8
fc
0f
05
05
ff
f3
03
f7
ff
ec
e9
e9
df
f6
f8
02
13
01
09
15
0c
07
03
01
04
11
0f
fb
04
05
00
f7
f5
f0
f7
f7
f3
f0
fb
f4
e3
f5
ec
01
0e
f8
ee
16
0f
0b
07
f7
f8
08
04
00
09
fd
ff
fd
02
fe
fb
f8
f5
f3
f2
f0
dc
da
d2
03
0a
f0
e7
0a
0c
13
09
fa
00
04
f8
f9
03
f7
fd
00
00
f5
ee
f2
f6
f8
f7
f7
e3
d8
c0
fe
0a
0e
0a
0f
0f
0f
fc
f4
01
fd
f7
f5
f9
ee
fb
fc
03
fa
fc
06
f8
ea
f4
f8
e9
df
f7
27
01
fe
f6
f3
fd
fe
fa
f7
f8
f6
f1
f2
f6
f5
fe
fb
04
06
06
0a
f9
f3
f6
f9
ef
dd
ef
13
08
ec
ec
fa
07
03
03
03
fa
f7
fe
fb
f9
f8
08
00
02
02
06
fe
fd
04
fc
fb
09
fa
00
0f
e9
eb
fa
04
0c
08
01
fd
f8
f4
fe
f0
f8
03
09
04
0b
01
01
ff
04
fb
01
04
08
f9
0f
e4
ec
e6
f9
07
01
fb
f6
fc
f1
f6
ee
f1
fa
ff
07
09
16
0d
04
ff
04
fd
fc
fb
f3
dc
dd
01
fb
f3
08
0e
fc
f8
f6
f0
e9
f2
f3
fd
06
10
1a
13
0e
10
09
07
ff
f8
f6
f7
ea
d8
e5
02
ef
e7
03
fe
fe
ff
f5
e5
ec
f3
01
04
0e
16
22
13
05
07
0a
07
f6
f8
fb
03
fb
e7
f7
fa
e5
19
18
f5
e5
f1
e7
e5
ee
f7
04
07
0e
20
1d
11
0e
0b
0f
07
f6
f5
f6
ff
01
f2
f8
f9
d9
ed
0d
f6
e7
e9
ec
f0
f2
fe
06
08
15
