00001c73
ffffeca1
ffffe910
00000288
ffffe80b
00002d5b
00000924
0000167c
00000a42
ffffe9ac
000001b3
ffffef60
00000e16
ffffe84e
00001114
fffff993
fffff28a
00000b63
00000dc4
ffffff57
000006e3
00000036
ffffee70
fffffef0
000020c8
ffffdec7
ffffff37
fffff06e
00001d3d
ffffea9b
ffffee7a
ffffe585
000024fa
0000414e
00003b51
00002b58
000008dd
ffffec19
00001cc9
fffffeef
fffffaf1
000002a8
ffffe692
ffffe6eb
fffffead
00000b74
00001162
00000d10
ffffec99
00000ce9
ffffee2b
00000113
fffff0b3
0000005b
ffffe639
00003469
00001bbe
000013de
ffffd90b
00002211
00003177
000010f9
0000113c
fffffa13
