fe
06
e5
f9
0e
ce
02
eb
0f
ff
f6
b9
f4
f7
18
d5
2b
f9
dc
0b
c5
0c
0f
fc
0b
05
f8
fb
db
fc
de
17
e9
06
da
13
12
eb
da
02
08
06
08
0a
17
09
e1
16
0c
ef
05
0a
06
fd
fb
cc
0e
e6
13
0a
c9
18
f0
14
06
0a
e8
fa
10
06
d9
e2
05
04
fd
c0
fe
35
fb
f7
d8
0c
ec
06
dd
f7
dc
00
16
0c
ec
0b
ce
f5
fb
ed
d7
81
d7
db
0b
22
0f
e6
0f
c3
0f
1e
0c
e1
13
1c
f1
1a
0e
1a
10
06
f7
13
8d
e3
f6
cd
14
da
dd
fa
12
f5
20
15
08
15
08
1d
ce
e9
34
11
28
f3
f1
17
16
eb
c6
08
fd
25
e2
f7
09
ca
28
e0
be
b8
10
10
f2
dc
ee
17
f9
e6
04
05
0a
14
22
f4
11
fd
05
e4
e2
eb
f8
01
de
04
0a
ee
05
1a
23
ea
eb
d3
0a
05
14
10
ff
06
1b
e1
16
ec
ca
0a
00
e5
07
16
f1
d1
2b
fa
e6
03
35
f6
0a
fc
e8
1e
f7
08
c8
07
d0
19
fe
ef
5f
bb
d0
e9
d8
f9
00
f2
06
0e
fa
e0
07
0c
f1
03
fd
f6
14
0c
c7
e6
e8
fa
fe
f8
f4
10
14
01
f5
41
1a
e3
07
12
e5
07
01
e9
14
0a
19
0c
c3
17
f2
02
e3
f9
d0
0d
ed
ff
0a
04
1f
f4
e2
0c
e7
f5
d4
ac
ec
12
06
f6
d4
17
0d
ad
04
0b
0b
f7
f8
05
f7
e9
fd
f6
eb
00
15
03
f7
11
17
f6
e6
d0
e4
05
17
36
19
be
0f
ed
e4
13
05
1c
ed
08
11
17
eb
02
ef
f8
ed
f8
cc
10
e2
08
1c
e6
b9
04
e5
0e
31
1d
e6
fc
11
37
fc
0c
b4
fb
03
d8
c2
f4
0a
32
0d
1b
06
ff
cb
04
10
f7
08
0c
a2
0d
0b
d9
f6
df
1b
e8
fc
08
f7
e9
15
16
fb
10
d6
d6
ea
d2
f6
07
f5
f7
03
fe
00
0a
e0
23
00
0b
c2
f6
e6
e4
0a
fb
02
1f
fa
24
d0
18
08
13
0c
e4
e3
f2
f4
03
db
13
f6
0b
10
15
18
00
19
09
fd
d3
c3
ea
1c
e5
dd
0f
fd
15
fd
0b
be
17
fc
bc
fd
e4
13
dd
de
e3
de
28
eb
c1
da
f5
f5
00
1d
f8
0f
fc
07
0f
c4
19
01
b4
0b
e7
06
ed
ef
e7
21
06
d9
f3
28
24
0b
ff
01
e6
23
25
f9
f2
01
11
ef
02
d5
2c
fb
dd
e2
0a
2e
03
06
f5
01
08
14
16
f4
f8
f1
1e
0e
20
2a
0e
fb
ae
12
0d
f8
e8
1d
f8
1e
f1
fb
0b
0f
ef
25
f7
20
ff
14
e8
22
0c
00
0b
05
e4
14
3c
e8
13
01
c1
0d
05
00
14
d8
f9
c8
bf
13
fc
1b
17
13
33
e5
20
12
04
06
e4
18
07
fb
0d
fc
15
f1
2b
fd
19
19
eb
26
d3
1b
ed
18
cf
e0
01
e6
da
fd
f6
fd
fa
15
dc
17
0a
23
08
f4
44
33
d5
e2
02
12
49
e6
f8
dc
d5
24
ea
dd
27
d9
38
fb
04
0a
01
0e
ea
03
28
e3
ea
ed
26
f0
f2
cb
06
22
09
fb
1c
22
e7
07
fa
cd
1d
d2
0e
1f
1d
ba
1d
0a
fe
00
eb
0d
ff
fc
fa
e3
15
05
ef
13
c4
13
ab
e7
c7
23
f6
35
e7
22
0c
0e
02
19
e7
31
c4
fb
b7
f3
de
d3
fe
e8
27
b4
c8
ca
f3
16
cb
fa
1d
1d
ec
08
30
ed
13
02
28
09
e7
1e
10
f3
96
13
38
fe
09
22
fd
24
0c
f9
0c
03
dc
fa
02
16
f2
e7
cc
22
16
d6
2a
02
cf
00
e1
08
0a
05
d6
f6
15
17
e0
c0
ed
f6
e4
16
f9
03
26
ff
25
e5
33
2b
df
04
e6
d4
c9
eb
fb
00
d3
10
e7
f0
0e
d3
a1
a6
05
04
f3
eb
17
0d
fe
f1
f7
f6
0c
d5
00
00
1a
f5
09
cd
f1
25
23
10
cb
02
14
32
10
d0
fc
dd
23
0c
c4
15
e0
14
9b
05
18
c5
fc
e1
0d
02
b6
f5
ed
1d
cf
8e
f4
0e
ba
b1
f3
f1
ad
f4
bf
ff
1b
04
d5
cb
07
21
ea
24
14
ff
f9
2b
f2
36
0c
12
fd
e6
25
f8
0b
e5
09
18
1f
01
a1
ea
08
14
ff
19
1e
0f
1a
14
b4
10
f1
03
00
eb
eb
ea
f8
fa
f6
e8
f4
f5
fe
26
f8
b7
0c
1c
de
f4
e0
0d
ed
11
e6
cb
e0
1b
d4
33
0e
f2
b9
1d
09
d5
0c
03
10
d4
07
05
f1
22
ce
cc
e2
f3
16
e7
fe
f2
c5
d8
ed
f4
fa
0a
cb
14
00
0d
d3
fa
c7
0d
29
11
0b
e9
f4
0b
db
db
13
1e
df
c6
03
ef
06
24
1c
03
cd
e5
0e
ba
90
07
06
f4
01
22
f7
fa
0f
30
20
f9
f6
e4
ff
d1
05
1a
0a
df
06
03
11
e4
06
0c
00
cc
31
df
df
bb
d4
05
d0
e4
fe
12
e6
17
ce
19
0e
14
1c
d8
f9
f7
f7
8a
f2
0e
1f
07
f6
17
e3
19
ed
04
e2
17
f5
08
e7
ea
c4
e0
01
04
e9
ed
e4
fc
fb
0c
fc
fb
1f
0d
fe
d5
0f
f8
c8
25
04
f6
1d
ff
18
cb
1a
08
19
df
da
eb
0a
ee
0d
e2
03
ef
c9
fe
fb
0c
08
0b
0c
09
b8
e5
ed
18
0b
cf
ff
08
0a
c5
ff
0c
e4
db
fa
0c
e2
01
fb
05
34
de
0a
f0
1f
29
eb
d7
01
28
00
07
00
14
1a
f0
13
f6
01
24
17
07
e6
e2
e1
f5
ee
ec
ff
1c
0c
12
0c
0f
d0
09
d8
15
c4
d5
ff
08
f9
14
e6
f1
e7
ff
00
13
c3
fb
04
06
de
dd
dc
fc
26
ec
27
cc
ea
29
f0
06
10
f5
ec
d6
04
e5
ff
b4
21
1c
01
e3
0d
14
10
d3
1e
4a
e9
d7
24
fa
cb
f0
20
de
15
d4
d6
01
f0
c0
09
da
00
ec
29
05
f9
06
f3
26
05
d2
2b
1d
fe
00
0b
ea
de
19
2c
00
1d
c2
00
10
22
f9
2a
c7
1d
1a
1f
08
15
ed
f9
04
fe
21
dd
f0
02
11
03
0d
c7
0f
11
35
ee
06
00
15
22
e3
f7
ed
2d
fe
d3
ff
c0
2c
3b
f4
42
e6
0e
4a
d1
ca
fb
01
ef
1b
f5
e6
d2
f4
f3
14
f7
00
ae
eb
25
1e
dd
ff
de
02
f8
01
c4
1a
d2
b5
fc
0f
e4
e9
f4
15
e1
04
0a
b8
0e
1c
00
04
f0
e1
e9
0e
06
e8
df
0a
f2
fd
f9
11
0e
ed
ff
fa
14
1b
e1
fd
fb
15
2d
ee
f9
bd
32
e2
fe
e3
13
0e
1c
db
0c
f1
b2
17
18
09
a9
ff
cf
18
00
fc
fb
3e
d1
c6
0d
f1
e8
00
0a
f4
e5
f4
01
fc
e2
07
11
1c
fc
d9
d8
03
23
01
ca
fc
fe
0e
ef
0d
28
ec
ef
ec
e8
05
db
13
37
fe
19
e5
0b
16
02
db
0d
bd
00
1c
2b
fc
fd
0d
c3
de
d9
05
b8
00
bd
0d
19
d4
e8
fb
fc
fc
c5
be
2c
11
fa
fa
ba
25
f4
e6
24
f5
06
fa
e9
aa
ff
01
fd
f2
cf
0f
16
0f
e6
12
08
bf
0b
e1
d7
e3
c8
1d
0e
0c
e3
20
f9
bf
19
d5
0a
cb
07
f3
ee
e1
f6
cc
c4
09
1b
e0
13
14
f5
39
1a
f0
2e
bd
d3
43
1c
c7
0b
28
07
15
e6
29
f8
18
14
df
12
16
26
fb
b6
f7
cf
f4
bc
10
22
1c
fa
e3
08
24
fb
b6
02
e9
e5
fc
e2
f7
fa
11
00
08
c9
cc
d2
d5
fb
06
f2
0f
06
0a
f1
03
1f
e2
37
0d
e4
04
c0
be
d7
f5
e4
1e
fc
ff
0c
07
08
20
d3
f5
fa
00
ea
fa
04
24
f5
c8
df
0a
36
dd
13
0d
09
16
fa
d8
10
ef
f8
bd
14
05
d2
01
18
09
0e
f5
f5
0d
e4
03
dc
ab
13
0e
27
08
23
f4
20
0b
01
06
f2
10
fd
34
2e
26
29
ff
f3
07
26
e0
0c
18
f7
05
d6
d0
fe
ea
13
0b
e6
fb
0f
d5
1f
01
af
f4
1c
10
f1
13
03
f4
e3
22
e1
01
25
d4
1e
ed
ec
e7
fa
1a
f5
f5
a7
27
ec
ee
eb
ce
e9
10
0e
